<unk>	0
<s>	0
</s>	0
<mask>	0
<_>	0
า	-1.82049
▁	-3.88454
.	-4.13722
ที่	-4.63771
และ	-4.76617
,	-5.34262
ได้	-5.39384
ของ	-5.39656
เป็น	-5.41493
"	-5.516
▁"	-5.57578
ใน	-5.65058
ให้	-5.69753
แล้ว	-5.77829
มี	-5.89018
การ	-5.91551
(	-5.92173
มา	-5.92342
ว่า	-5.93306
ไป	-5.95098
)	-5.95767
แต่	-5.96328
หรือ	-6.03306
จาก	-6.06291
กับ	-6.09812
ๆ	-6.12839
-	-6.17184
ก็	-6.18346
จะ	-6.1982
#	-6.20099
คน	-6.21909
ส	-6.23345
ค	-6.29318
น	-6.30334
พ	-6.31618
นี้	-6.31878
ด้วย	-6.33398
ต	-6.33648
2	-6.34797
เลย	-6.35099
โดย	-6.3977
อ	-6.41045
ไม่	-6.4259
คือ	-6.44297
""	-6.46028
เพื่อ	-6.47445
อยู่	-6.47706
ย	-6.48101
?	-6.5068
อย่าง	-6.50832
1	-6.53865
ซึ่ง	-6.54034
ก	-6.55087
:	-6.55414
ความ	-6.59587
3	-6.61633
5	-6.62506
มัน	-6.64213
กัน	-6.64469
ปี	-6.65358
เพราะ	-6.66381
ค่ะ	-6.67016
นาย	-6.68772
นั้น	-6.69173
ครับ	-6.71508
นะ	-6.71701
ทาง	-6.73137
ม	-6.75859
คุณ	-6.77171
ไม่ได้	-6.80437
เรื่อง	-6.81117
เขา	-6.81335
ดี	-6.82565
มาก	-6.82751
ต้อง	-6.86372
แบบ	-6.87351
...	-6.87351
ป	-6.88384
ถึง	-6.88655
เรา	-6.89049
ศ	-6.91949
ตาม	-6.91991
ตัว	-6.92056
ผม	-6.94071
อีก	-6.94768
ทํา	-6.96419
ยัง	-6.9785
เมื่อ	-6.99081
4	-7.00209
ทั้ง	-7.00913
ดู	-7.02593
ต่อ	-7.03907
/	-7.04865
จ	-7.05551
ใช้	-7.05796
ร	-7.07127
ก่อน	-7.09711
ฉัน	-7.12928
ขึ้น	-7.1312
ท	-7.16098
ไทย	-7.17164
s	-7.17945
ถูก	-7.213
เข้า	-7.21368
บ	-7.21467
ในการ	-7.2254
ผู้	-7.22914
ทําให้	-7.24087
สําหรับ	-7.25232
อะไร	-7.26213
หน้า	-7.27506
ด	-7.28115
ถ้า	-7.28149
!	-7.2866
ว	-7.29663
นี่	-7.30844
วัน	-7.30895
ใหม่	-7.31085
หลัง	-7.32773
เธอ	-7.3364
พร้อม	-7.35886
ไว้	-7.36301
ส่วน	-7.3657
พี่	-7.36854
ออก	-7.37026
”	-7.37276
tab	-7.38489
ประเทศ	-7.38575
บ้าน	-7.38768
ลูก	-7.39689
งาน	-7.4009
จน	-7.41673
จึง	-7.42043
เอา	-7.43695
น้ํา	-7.43734
การเมือง	-7.4506
แม่	-7.45513
'	-7.46416
เจ้าหน้า	-7.48305
7	-7.48933
เครื่อง	-7.4915
เ	-7.49932
สามารถ	-7.50583
6	-7.50641
ละ	-7.50959
ลง	-7.5145
วันที่	-7.51492
เวลา	-7.5173
10	-7.51739
กว่า	-7.51836
ไม่มี	-7.52204
;	-7.52342
เมือง	-7.53256
ช	-7.53524
ระหว่าง	-7.53716
“	-7.54576
จริง	-7.55709
ขอ	-7.55747
ใจ	-7.55823
แห่ง	-7.56141
ล	-7.56912
ประชาชน	-7.56919
กลุ่ม	-7.57041
พล	-7.57052
ที่จะ	-7.58249
เช่น	-7.58929
กําลัง	-7.59218
เหมือน	-7.59897
บาท	-7.59974
ดังกล่าว	-7.60216
รับ	-7.60522
รถ	-7.61107
เห็น	-7.62196
ง	-7.63586
หนึ่ง	-7.64285
จังหวัด	-7.64285
เอง	-7.65657
ด้าน	-7.66368
จริงๆ	-7.68083
พระ	-7.68203
ช่วย	-7.68995
น้อง	-7.70273
ท่าน	-7.70573
ชอบ	-7.70616
ราคา	-7.70755
ฯ	-7.70919
ที่มี	-7.71122
เกี่ยวกับ	-7.71187
ใคร	-7.72431
แค่	-7.73136
ผ่าน	-7.73323
เล่น	-7.73951
เด็ก	-7.75049
นะคะ	-7.75292
8	-7.75527
บอก	-7.75662
a	-7.75902
▁-	-7.7666
จํานวน	-7.76705
ต่างๆ	-7.76903
คิด	-7.76998
ทั้งหมด	-7.77165
ไม่ใช่	-7.77181
ประเทศไทย	-7.77438
เจ้า	-7.77928
พื้นที่	-7.77965
นัก	-7.78025
เลือกตั้ง	-7.78211
ใหญ่	-7.79338
พรรค	-7.80002
เดือน	-7.80415
พอ	-7.808
ใส่	-7.80979
▁และ	-7.81382
ตอน	-7.81395
ออกมา	-7.82071
ทุก	-7.82488
รัฐบาล	-7.82947
แบบนี้	-7.8313
เปิด	-7.8342
ตัวเอง	-7.83581
ทีม	-7.84922
เปลี่ยน	-7.851
ชั้น	-7.8546
ประมาณ	-7.85596
เงิน	-7.85676
รัก	-7.86178
เสียง	-7.86354
ชื่อ	-7.86675
ซื้อ	-7.8675
ส่ง	-7.87009
เข้ามา	-7.87226
กิน	-7.87331
ตั้งแต่	-7.87395
มากกว่า	-7.87686
กล่าวว่า	-7.88279
เกิดขึ้น	-7.88302
พูด	-7.88516
ที่ผ่านมา	-7.88722
เริ่ม	-7.88827
9	-7.89256
x	-7.89746
วันนี้	-7.89862
ต่อไป	-7.901
เค้า	-7.90645
นํา	-7.91359
20	-7.91819
▁&	-7.92638
อัน	-7.92793
ทํางาน	-7.93129
กลับ	-7.93373
คะ	-7.93375
บ้าง	-7.937
อยู่ใน	-7.9381
ตอนนี้	-7.94575
▁ฉัน	-7.94656
_	-7.94914
ติด	-7.94989
ค่า	-7.95512
เท่านั้น	-7.96402
ระบบ	-7.9668
สี	-7.96824
รัฐธรรมนูญ	-7.96907
ชีวิต	-7.96979
สร้าง	-7.9714
สาย	-7.97522
ตํารวจ	-7.97624
เดียวกัน	-7.97757
พวก	-7.97851
เอ	-7.98402
หา	-7.98458
ต่าง	-7.98558
ขาย	-7.99056
สิ	-7.99827
เศรษฐกิจ	-7.99889
ข้อมูล	-8.00518
บอกว่า	-8.01079
เพิ่ม	-8.01341
หนังสือ	-8.01885
ตาย	-8.02251
รอ	-8.0237
โลก	-8.02443
สอง	-8.02548
e	-8.0267
the	-8.03217
▁แต่	-8.03328
พบ	-8.03479
▁คุณ	-8.03829
เนื่องจาก	-8.04008
ร้าน	-8.04154
&'	-8.04302
อะ	-8.04332
เกิด	-8.04528
t	-8.04679
หัว	-8.05042
โครงการ	-8.0523
อยาก	-8.05464
ภายใน	-8.05726
ณ	-8.05741
เสียชีวิต	-8.06136
เลือก	-8.06147
ซึ่งเป็น	-8.06153
บริษัท	-8.06477
ต้องการ	-8.06533
30	-8.06552
พ่อ	-8.06571
รวม	-8.06614
เข้าไป	-8.06746
วัด	-8.06869
อายุ	-8.07292
อาหาร	-8.07346
b	-8.076
อ่าน	-8.07651
ภาพ	-8.07682
คํา	-8.07766
ดําเนินการ	-8.07869
กู	-8.08428
บน	-8.08499
ห	-8.08893
ได้รับ	-8.09655
สุด	-8.10181
▁ผม	-8.10861
▁นาย	-8.10888
คณะกรรมการ	-8.11214
สูง	-8.11551
อื่น	-8.11752
ไหม	-8.11983
เสีย	-8.11987
หรือไม่	-8.11998
15	-8.1213
นะครับ	-8.12131
ตําแหน่ง	-8.12138
d	-8.12217
เพียง	-8.12533
ทุกคน	-8.12668
ชุด	-8.12811
ระดับ	-8.1296
รู้	-8.12993
เหมือนกัน	-8.13013
ปัญหา	-8.13104
เพื่อน	-8.13938
เม	-8.13943
ชาว	-8.14009
โดน	-8.14552
คง	-8.14745
ทรง	-8.14749
อาจ	-8.15029
หาก	-8.15064
ศาสตร์	-8.15151
ร่วม	-8.15199
ครอบครัว	-8.15268
ตั้ง	-8.15462
i	-8.15684
ฝ่าย	-8.15712
ไม่สามารถ	-8.15806
ตรวจสอบ	-8.15888
นาง	-8.16906
กฎหมาย	-8.17273
ก็ได้	-8.17315
จะมี	-8.17489
่	-8.17631
มอง	-8.17892
ที	-8.17944
มีความ	-8.18625
เรียก	-8.18651
กลับมา	-8.18834
จัด	-8.19167
น่า	-8.19236
โรงเรียน	-8.1931
ขณะที่	-8.19733
สนับสนุน	-8.20366
ผล	-8.20484
เรื่องนี้	-8.20961
กล่าว	-8.21274
ในปี	-8.21325
เรียน	-8.21463
บริเวณ	-8.21994
พวกเขา	-8.22244
ทหาร	-8.22493
แก่	-8.22694
รอบ	-8.22875
เกี่ยวข้อง	-8.22898
▁ถ้า	-8.22929
มือ	-8.23312
คนที่	-8.23698
ขนาด	-8.24109
ของเรา	-8.24416
มิ	-8.24422
มีการ	-8.2455
มหาวิทยาลั	-8.24824
สินค้า	-8.24965
จับ	-8.25005
คดี	-8.25129
ช่วยเหลือ	-8.25274
หลังจาก	-8.2537
เพลง	-8.25849
แห่งชาติ	-8.26051
อ่ะ	-8.26145
ส์	-8.26434
หมด	-8.26584
12	-8.26585
ให้กับ	-8.26596
m	-8.27185
ในพื้นที่	-8.27209
ผิด	-8.27286
หลาย	-8.27461
อย่างไร	-8.27477
เหตุการณ์	-8.27664
ธ	-8.27675
เคย	-8.27805
รัฐ	-8.28298
ประโยชน์	-8.28443
เจอ	-8.2899
สิ่งที่	-8.29089
บาง	-8.29273
น้อย	-8.29288
สั่ง	-8.29413
โอ	-8.29503
ตน	-8.29574
ะ	-8.29575
มากขึ้น	-8.29619
รัฐมนตรี	-8.29854
้	-8.30034
ทําไม	-8.30075
เดียว	-8.30093
จุด	-8.30101
ฟ	-8.30343
ออกไป	-8.30579
ราย	-8.30964
หลัก	-8.31121
19	-8.31233
เหรอ	-8.31482
แทน	-8.31648
สํานักงาน	-8.31724
ล่ะ	-8.3181
น่ะ	-8.31823
เดิน	-8.32481
อย่า	-8.32844
24	-8.32955
ข่าว	-8.33072
เก็บ	-8.33322
g	-8.33374
in	-8.33539
กลาง	-8.33688
จากการ	-8.3376
พนักงาน	-8.33805
อํานาจ	-8.34013
▁เรา	-8.34045
อีกครั้ง	-8.34245
ของคุณ	-8.34412
️	-8.34646
ปิด	-8.34697
ฟัง	-8.34785
คิดว่า	-8.34821
k	-8.35177
ท่องเที่ยว	-8.35497
เป็นการ	-8.35611
ยังไม่	-8.35839
มาจาก	-8.35847
นั่ง	-8.35848
พัฒนา	-8.36046
ทอง	-8.36061
▁มี	-8.36587
เตรียม	-8.36703
ร่าง	-8.36713
▁เพราะ	-8.36786
น่าจะ	-8.36852
ประกาศ	-8.36883
เพื่อให้	-8.36984
ก็จะ	-8.37077
ปัจจุบัน	-8.37097
สังคม	-8.37278
ซี	-8.37686
เขียน	-8.37842
ไหน	-8.38023
ไปแล้ว	-8.38049
เยอะ	-8.3813
โฮ	-8.38186
ได้รับการ	-8.38202
ช่อง	-8.38406
▁โดย	-8.38543
ควร	-8.38972
ถาม	-8.39067
จะได้	-8.39242
คู่	-8.39317
โดยเฉพาะ	-8.3953
รูป	-8.39547
n	-8.39612
สถานการณ์	-8.39638
พิเศษ	-8.39651
c	-8.39965
ช่วง	-8.40073
ถนน	-8.40132
หน่อย	-8.40546
พระองค์	-8.40548
555	-8.40579
นอน	-8.40661
ขอให้	-8.40981
"""	-8.41067
ระชาธิปไตย	-8.41164
การศึกษา	-8.41353
กะ	-8.41385
ของเขา	-8.4145
อี	-8.4155
เขต	-8.41634
14	-8.41647
จะเป็น	-8.41729
หรอก	-8.41878
ปลอดภัย	-8.42085
ต่างประเทศ	-8.42499
แรงงาน	-8.42744
ที่สุด	-8.42761
มึง	-8.42788
18	-8.42892
ภาค	-8.43018
f	-8.43088
หนู	-8.43089
พิจารณา	-8.43093
ครั้ง	-8.43122
ข้อ	-8.43202
ชาวบ้าน	-8.43333
ตลอด	-8.434
16	-8.43458
เกม	-8.435
รู้สึก	-8.43545
จีน	-8.43737
กระทรวง	-8.43792
ทุกอย่าง	-8.43864
รี	-8.44128
สื่อ	-8.44161
รุ่น	-8.44387
ศาล	-8.44498
อําเภอ	-8.44574
11	-8.44711
เดิม	-8.44859
สิทธิ	-8.45164
นัด	-8.4525
ขึ้นมา	-8.45766
เรือ	-8.45942
ล้านบาท	-8.45992
อยู่ที่	-8.4627
สัมพันธ์	-8.46437
ผู้หญิง	-8.46695
13	-8.46724
กรณี	-8.46725
เจ้าของ	-8.46735
แก	-8.46963
มั้ย	-8.47483
ก็คือ	-8.47508
&	-8.47617
ร้อยละ	-8.48007
อิ	-8.48324
คืน	-8.48405
จะต้อง	-8.48442
ที่เป็น	-8.48443
รอง	-8.48567
ร์	-8.48646
เนื้อ	-8.48751
ยิง	-8.49002
วง	-8.49601
ญี่ปุ่น	-8.49675
25	-8.49852
นโยบาย	-8.50095
สวย	-8.50231
ปาก	-8.50322
แรก	-8.50635
นั่น	-8.50722
สําคัญ	-8.50727
เมื่อวัน	-8.50786
คนอื่น	-8.50867
เกิดเหตุ	-8.51053
ห้อง	-8.51192
หญิง	-8.51331
ตลาด	-8.51386
ประจํา	-8.51427
พยายาม	-8.51526
อาจจะ	-8.51644
ตี	-8.52204
อดีต	-8.5263
ข้าว	-8.52698
ข	-8.53285
จบ	-8.53346
ส่วนใหญ่	-8.53374
ยิ่ง	-8.53406
โต	-8.53548
ชาติ	-8.53572
การแข่งขัน	-8.53865
ชาย	-8.53889
สาม	-8.53918
ไฟ	-8.54066
▁ซึ่ง	-8.54261
ตัด	-8.54333
หน่วยงาน	-8.54353
สุดท้าย	-8.54659
สอบสวน	-8.54962
ตก	-8.55007
คณะ	-8.55129
ร่วมกัน	-8.55147
of	-8.55237
ยังไง	-8.55258
ใด	-8.55259
y	-8.5527
แรง	-8.55451
ปกติ	-8.55481
ใบ	-8.5553
รักษา	-8.55696
ลด	-8.55807
ตร	-8.55861
แน่นอน	-8.56086
ราช	-8.56573
ในช่วง	-8.56801
พระเจ้า	-8.56821
กุ	-8.56941
ล่าสุด	-8.56942
ยาว	-8.57183
เน	-8.57266
com	-8.57585
กําหนด	-8.57618
▁แล้ว	-8.57669
ของฉัน	-8.57735
ดูแล	-8.57869
ออกจาก	-8.58055
ลอง	-8.58133
กลัว	-8.5821
แสดง	-8.58492
อื่นๆ	-8.58617
ชัย	-8.58665
▁ส่วน	-8.58698
ชม	-8.58698
ล้าน	-8.58706
ครู	-8.58731
กลายเป็น	-8.58853
รายงาน	-8.59154
ศรี	-8.5933
ตัดสินใจ	-8.59343
▁เมื่อ	-8.59412
▁เธอ	-8.59562
รวมทั้ง	-8.6023
เหล่านี้	-8.6024
พิมพ์	-8.60309
ติดตาม	-8.61009
เห็นว่า	-8.61019
ดีกว่า	-8.61164
ต่อเนื่อง	-8.61217
ทั้งนี้	-8.61515
โรงพยาบาล	-8.61542
ชนะ	-8.61718
รายการ	-8.61868
เรียกร้อง	-8.6199
ดัง	-8.62119
เป็นคน	-8.62248
พร	-8.6247
▁มัน	-8.62791
p	-8.62799
50	-8.62805
รวมถึง	-8.62829
อยู่แล้ว	-8.62989
ซ	-8.63024
โก	-8.63149
17	-8.63316
์	-8.63337
ธุรกิจ	-8.63539
ศูนย์	-8.63585
แดง	-8.63671
เล็ก	-8.63719
ไม่ต้อง	-8.63742
เดินทาง	-8.64114
สมาชิก	-8.64577
เป็นผู้	-8.648
แล้วก็	-8.64884
เพิ่มเติม	-8.64997
น่ารัก	-8.65168
เข้าใจ	-8.65188
เพิ่มขึ้น	-8.6551
กระบวนการ	-8.65567
หนัง	-8.65829
ก็มี	-8.66028
พบว่า	-8.66309
ยก	-8.66442
th	-8.66454
ธรรม	-8.66857
=	-8.67121
แจ้ง	-8.67199
."	-8.67387
ที่ดี	-8.67414
วิ่ง	-8.67918
บัตร	-8.68213
://	-8.68245
คัน	-8.68353
ต้น	-8.68492
สาว	-8.68626
100	-8.6865
จํานวนมาก	-8.68738
ยังมี	-8.68865
และการ	-8.68865
ตรง	-8.68894
นาที	-8.69086
จํากัด	-8.69169
ไม่เคย	-8.69242
▁เขา	-8.69425
ครั้งแรก	-8.69483
แก้ว	-8.69541
]	-8.69784
หยุด	-8.69934
ปรับ	-8.70118
v	-8.7015
ชน	-8.70168
ตอบ	-8.70194
ไม้	-8.70329
แปลง	-8.70331
องค์กร	-8.7039
ในวันที่	-8.70569
เป็นเรื่อง	-8.70621
เราก็	-8.70846
เลี้ยง	-8.71142
ซา	-8.71369
เด	-8.7141
โทรศัพท์	-8.71444
วาง	-8.71469
ศึกษา	-8.71722
▁ไม่	-8.71812
มากๆ	-8.7188
สําเร็จ	-8.72145
ลี	-8.72172
สุ	-8.72374
ขณะ	-8.72493
จัง	-8.72893
เฉพาะ	-8.72918
w	-8.73
ไม่รู้	-8.73007
ติ	-8.73201
ข้า	-8.73431
ก็ต้อง	-8.73582
เก่า	-8.73593
o	-8.73634
ส่วนตัว	-8.73737
กด	-8.74102
ยู	-8.74605
ประเด็น	-8.74897
ธรรมชาติ	-8.75338
ยาก	-8.75462
ไปยัง	-8.75576
เกิน	-8.7561
ปล่อย	-8.75635
l	-8.75716
เต็ม	-8.75779
นิ	-8.75808
ขาด	-8.75885
วัย	-8.76059
40	-8.76129
ครั้งนี้	-8.76295
ชุมชน	-8.76682
ทิ้ง	-8.76868
ใช่	-8.7699
เชื่อว่า	-8.77071
สภาพ	-8.7721
โค	-8.77266
to	-8.77547
เข้าร่วม	-8.77767
ระบุว่า	-8.78042
ปลา	-8.78169
มากมาย	-8.78221
สถาบัน	-8.78306
เหนือ	-8.78363
▁"""	-8.7854
แฟน	-8.78666
บี	-8.78905
กรัฐมนตรี	-8.7896
ร้อง	-8.78989
มนุษย์	-8.79017
เสียหาย	-8.7904
เลยค่ะ	-8.79156
สาร	-8.7936
ดังนั้น	-8.79389
ห้าม	-8.79723
ที่นี่	-8.79765
คนเดียว	-8.79782
ฆ่า	-8.79898
ใต้	-8.80141
จะไม่	-8.8019
ศักดิ์	-8.80251
23	-8.80393
ประธาน	-8.80461
ป้องกัน	-8.80503
เซ	-8.80544
หนัก	-8.80625
ประเภท	-8.80859
หาย	-8.8093
ชั่วโมง	-8.80931
หมอ	-8.81031
สูงสุด	-8.81112
ด้วยกัน	-8.81121
คับ	-8.81135
ทําอะไร	-8.81178
บริการ	-8.81276
ท่า	-8.81353
มาตรา	-8.81355
คอ	-8.81396
ตะวันออก	-8.81466
ดิ	-8.81491
จ้า	-8.81504
ได้แก่	-8.8157
นอกจากนี้	-8.81725
❤	-8.81899
ดํา	-8.82064
ควบคุม	-8.8212
การทํางาน	-8.82205
ประตู	-8.82249
ซิ	-8.82265
แยก	-8.82338
สภ	-8.82378
ไร	-8.82515
จําเป็น	-8.82868
น้ํามัน	-8.8295
r	-8.8296
ประ	-8.83073
ภ	-8.83173
โร	-8.83344
ความรู้สึก	-8.83371
คนไทย	-8.83432
ไอ้	-8.8353
เจ	-8.83555
หรอ	-8.8367
มาแล้ว	-8.83716
กร	-8.83811
–	-8.83914
นักเรียน	-8.84053
สอน	-8.841
ริ	-8.84121
แก้ไข	-8.84138
เหลือ	-8.84161
จ่าย	-8.84163
เส้น	-8.84168
จัดการ	-8.84281
ลูกค้า	-8.84292
สาขา	-8.84294
โน	-8.84411
เกือบ	-8.84473
ไอ	-8.84515
วา	-8.84529
อุตสาหกรรม	-8.84738
21	-8.85015
เชื่อ	-8.85137
เร	-8.85299
หัวหน้า	-8.85348
ที่ดิน	-8.85359
บุญ	-8.85637
รายละเอียด	-8.85683
▁&'	-8.85789
ความจริง	-8.85878
ทั้งสอง	-8.85915
60	-8.85985
เครือข่าย	-8.86477
▁section	-8.86866
22	-8.87004
ยอด	-8.87049
โม	-8.87147
ก่อนหน้า	-8.87249
อาการ	-8.87424
ไม่ให้	-8.87455
แน่	-8.87592
อิน	-8.87658
คสช	-8.87708
ระ	-8.87796
รับผิดชอบ	-8.87837
▁พี่	-8.87852
re	-8.87998
เชียงใหม่	-8.88001
ทั่วไป	-8.88072
เรียบร้อย	-8.88147
หรือเปล่า	-8.8823
นาน	-8.88594
เนี่ย	-8.88605
การประชุม	-8.88691
สนใจ	-8.88805
กระ	-8.88849
แม้	-8.88937
▁อ	-8.89006
คะแนน	-8.89341
พวกเรา	-8.89342
เร่ง	-8.89355
แนะนํา	-8.89369
มาตรฐาน	-8.89508
อเมริกา	-8.89529
ส่งเสริม	-8.89703
ไง	-8.89808
+	-8.8997
อยู่กับ	-8.90024
ประวัติ	-8.90384
เสนอ	-8.90538
ร่วมกับ	-8.90689
สัก	-8.9085
ฮา	-8.90852
ป่า	-8.90934
ในประเทศ	-8.90936
หลักฐาน	-8.91046
ว่าจะ	-8.91139
ทาน	-8.91156
เบอร์	-8.9118
ต์	-8.91288
งบประมาณ	-8.91361
ขับ	-8.91435
จะทําให้	-8.91548
28	-8.91607
เมตร	-8.91801
เราจะ	-8.9183
โดยมี	-8.91902
ระบุ	-8.92083
ในเรื่อง	-8.92175
บุคคล	-8.92257
ing	-8.92279
เจริญ	-8.92318
26	-8.92362
วะ	-8.92465
ตรวจ	-8.92578
มีความสุข	-8.92649
ดาว	-8.92719
ระเบิด	-8.9274
อาคาร	-8.92741
กิจกรรม	-8.93224
อยากให้	-8.93258
ขาว	-8.93259
หลายคน	-8.93367
ผลิต	-8.93485
แพ้	-8.93661
เอกสาร	-8.93794
เทคโนโลยี	-8.93847
แต่ก็	-8.9402
วัฒนธรรม	-8.9402
ตะ	-8.94054
ได้อย่าง	-8.94185
นี	-8.94313
ผ้า	-8.94348
ผู้ต้องหา	-8.94359
อังกฤษ	-8.94481
นักศึกษา	-8.94491
ดิน	-8.94604
ยังคง	-8.94612
สถานที่	-8.94797
เก่ง	-8.94839
;&	-8.94855
รู้ว่า	-8.94906
รถยนต์	-8.95134
เค	-8.95216
แต่ละ	-8.95384
สร้างความ	-8.95417
สิ่ง	-8.95418
หัวใจ	-8.95462
อาจารย์	-8.95617
ภาษา	-8.95716
ทะเล	-8.95825
ร่างกาย	-8.95874
เริ่มต้น	-8.96013
เช่นกัน	-8.9603
ต่อมา	-8.96071
ซะ	-8.96092
เถอะ	-8.96187
ก่อสร้าง	-8.96193
ยุติธรรม	-8.96209
ผู้นํา	-8.96245
หน่วย	-8.96281
เคลื่อนไหว	-8.96313
สัตว์	-8.96327
แก้	-8.96378
ยืนยัน	-8.96445
ทุกวัน	-8.96492
u	-8.96533
แตก	-8.96582
โล	-8.96618
การใช้	-8.96655
ภาพยนตร์	-8.96696
เหตุ	-8.96817
หนี	-8.9704
ของเธอ	-8.97061
คิดถึง	-8.97231
▁วันนี้	-8.97258
เผย	-8.97556
—	-8.9762
ง่าย	-8.97687
ลบ	-8.97776
กําลังใจ	-8.978
ขอบคุณ	-8.97845
ใกล้	-8.97872
สม	-8.97873
รู้จัก	-8.98033
กรรมการ	-8.98069
เข้าสู่	-8.98265
โรค	-8.98363
ก็ไม่	-8.98397
คุณภาพ	-8.98588
h	-8.98645
!!	-8.9866
ประกอบ	-8.98909
กรุง	-8.98934
ความมั่นคง	-8.98968
แนว	-8.98982
นึง	-8.98989
ปฏิบัติ	-8.98993
เสมอ	-8.99506
▁การ	-8.99567
27	-8.99575
ด่า	-8.9963
เท	-8.99695
วิ	-8.99769
ทันที	-8.99859
ครั้งที่	-8.99976
ยืน	-9.0001
บอล	-9.00119
บท	-9.00211
สัญญา	-9.00452
โซ	-9.00476
ท้องถิ่น	-9.00575
จอง	-9.00631
หมา	-9.0076
เบื้องต้น	-9.00784
ก็ยัง	-9.00829
29	-9.00883
แสน	-9.00969
ผู้สื่อข่า	-9.01027
สุขภาพ	-9.01063
หนุ่ม	-9.01108
เสื้อ	-9.01208
เรียกว่า	-9.01209
มะ	-9.01229
อาชีพ	-9.01307
ศพ	-9.01384
มากที่สุด	-9.01482
แสดงความ	-9.0162
อร่อย	-9.0167
อากาศ	-9.01731
เล	-9.01764
เลือด	-9.01788
วิธี	-9.02003
บางคน	-9.02119
สิทธิ์	-9.02123
กลับไป	-9.02224
ธนาคาร	-9.02259
เท่าไหร่	-9.02275
สมัย	-9.02287
พิ	-9.0233
😂	-9.02695
ผิว	-9.02766
เลิก	-9.02794
กับการ	-9.02833
บริหาร	-9.0287
ดีๆ	-9.02969
หมายถึง	-9.03066
เบ	-9.03089
[	-9.03199
แพทย์	-9.032
พัก	-9.03231
เกาะ	-9.0332
ซู	-9.03342
ขา	-9.03477
บัญชี	-9.03633
อย่างนั้น	-9.03686
ฉบับ	-9.03816
ช่าง	-9.0386
พี่น้อง	-9.03948
ของประเทศ	-9.04189
ฟรี	-9.04194
ฟ้า	-9.04231
สงคราม	-9.04284
กรม	-9.04414
สอบถาม	-9.04595
พูดถึง	-9.04602
นอก	-9.04894
www	-9.05012
ตําบล	-9.05038
กล้อง	-9.05059
สวน	-9.05135
กระเป๋า	-9.05196
ไร้	-9.05254
ความคิด	-9.05303
สู่	-9.05359
อย่างนี้	-9.05488
องค์	-9.05513
ย์	-9.05519
ฝั่ง	-9.05707
เปิดเผยว่า	-9.05867
ถือเป็น	-9.05962
จี	-9.05975
ที่ถูก	-9.05991
สุข	-9.05992
แผ่น	-9.05993
’	-9.06043
ด้วยการ	-9.06287
มีคน	-9.06411
สอบ	-9.06423
ญ	-9.06442
ฐาน	-9.06494
แสง	-9.06573
ราชการ	-9.06643
มันก็	-9.0679
ทําหน้าที่	-9.06952
รายได้	-9.07018
พ่อแม่	-9.07317
อันดับ	-9.07338
แก้ปัญหา	-9.07338
วิทยา	-9.07373
แผ่นดิน	-9.07415
การพัฒนา	-9.0759
ความผิด	-9.07739
โด	-9.0779
ในฐานะ	-9.07798
เร็ว	-9.07824
มันเป็น	-9.07864
เลยครับ	-9.07896
สมเด็จพระ	-9.07921
ค่อนข้าง	-9.08033
ชี้	-9.08097
คลิป	-9.08138
ยึด	-9.0828
พลัง	-9.08294
หมู่บ้าน	-9.08308
ลืม	-9.08308
สถานี	-9.08328
สู้	-9.08348
การกระทํา	-9.08381
เส้นทาง	-9.08405
ที่บ้าน	-9.08458
เทพ	-9.08611
ยอม	-9.08688
ประยุทธ์	-9.08705
อ่อน	-9.08847
จําหน่าย	-9.08872
และมี	-9.08912
สหรัฐ	-9.0893
เย็น	-9.09152
เพิ่ง	-9.09206
คุ้มครอง	-9.09224
ถือว่า	-9.09256
อุปกรณ์	-9.09339
จนถึง	-9.09347
จํา	-9.09456
กอง	-9.09491
โทร	-9.09584
หมู่	-9.09732
มีปัญหา	-9.09735
ประสบการณ์	-9.09752
กษัตริย์	-9.0989
ที่เรา	-9.10004
จะไป	-9.10008
โอกาส	-9.10015
ของการ	-9.1011
ถ่าย	-9.10136
ดีที่สุด	-9.1016
ผู้ชาย	-9.10199
ชัดเจน	-9.10226
ยาง	-9.1028
แต่ง	-9.10508
ญาติ	-9.10518
ละคร	-9.10552
ไม่ค่อย	-9.10591
จิ	-9.1068
ลุง	-9.10702
ผมก็	-9.10736
on	-9.1096
ติดต่อ	-9.11061
เดี๋ยว	-9.1115
คําว่า	-9.1126
เรียนรู้	-9.11316
ตนเอง	-9.1133
ด้วยความ	-9.11364
มีผู้	-9.11374
พลังงาน	-9.11398
ของประชาชน	-9.11441
ตัวอย่าง	-9.11466
ยิ้ม	-9.11469
ตามที่	-9.11562
หนึ่งใน	-9.11655
ลงไป	-9.11712
ไม่มีใคร	-9.11725
จง	-9.11866
เจ็บ	-9.11956
ความรัก	-9.12098
j	-9.12341
เต	-9.1236
ดร	-9.12384
รีบ	-9.12469
co	-9.125
วี	-9.12507
ถือ	-9.12535
พระราช	-9.12736
นายกฯ	-9.12796
ไม่ดี	-9.12857
หมายเลข	-9.12922
▁เนื่องจาก	-9.132
จากนั้น	-9.13223
ดําเนินคดี	-9.13278
ความเป็น	-9.13374
หน้าที่	-9.13417
ของตัวเอง	-9.13449
▁ทําไม	-9.13542
ก้	-9.1358
ร้อน	-9.13694
ความสามารถ	-9.13699
พัน	-9.13758
ที่ใช้	-9.13876
0	-9.14043
ไม่เกิน	-9.14135
ท์	-9.14189
งง	-9.14198
▁ขอ	-9.1423
หลากหลาย	-9.14292
ก้อ	-9.14387
เท่า	-9.14497
ประกอบด้วย	-9.14723
มันจะ	-9.14839
รางวัล	-9.1519
ตัน	-9.15234
รุนแรง	-9.15245
เป้าหมาย	-9.15257
55	-9.15359
คุย	-9.15388
ที่สําคัญ	-9.1543
ชิ	-9.15477
ประชุม	-9.15506
ยุค	-9.15703
ไล่	-9.15722
al	-9.15751
ถามว่า	-9.15776
ผู้ใหญ่	-9.16039
ทําลาย	-9.16167
ยอมรับ	-9.163
บิน	-9.16315
เปิดเผย	-9.16362
สหรัฐฯ	-9.16414
ทักษิณ	-9.16418
บรรยากาศ	-9.1657
วงศ์	-9.16944
เรื่องราว	-9.16994
▁(	-9.16996
ผลงาน	-9.17204
ผลิตภัณฑ์	-9.17284
เตอร์	-9.17332
สมอง	-9.17385
เมีย	-9.17419
คนนี้	-9.17459
และความ	-9.17511
ท้อง	-9.17592
บัญญัติ	-9.1761
สนาม	-9.17743
แอบ	-9.17817
ข้อความ	-9.17845
เอาไว้	-9.17845
กองทัพ	-9.17858
ฝรั่งเศส	-9.17955
เลยนะ	-9.18093
ดื่ม	-9.18113
48	-9.18285
กระแส	-9.18407
เก	-9.1841
เกียรติ	-9.18441
กกต	-9.18452
มาก่อน	-9.18528
ทราบ	-9.18547
ข้าราชการ	-9.18629
หมู	-9.18751
ทรัพย์สิน	-9.18857
กก	-9.18871
นิ้ว	-9.18874
สัมภาษณ์	-9.19114
ข้าง	-9.1922
ลดลง	-9.19234
สด	-9.19255
กทม	-9.19354
er	-9.1939
▁ดังนั้น	-9.19631
),	-9.19772
มัก	-9.19814
พอดี	-9.20352
อาณาจักร	-9.20424
ศาสนา	-9.20434
อก	-9.20556
ให้บริการ	-9.2058
ที่ตํารวจ	-9.20661
อารมณ์	-9.20681
▁หลังจาก	-9.20936
ขณะนี้	-9.20962
อันตราย	-9.21056
แต่ถ้า	-9.21067
น้า	-9.21119
รู	-9.21243
ทั้งหลาย	-9.21264
เสร็จ	-9.21301
ก็เป็น	-9.21305
อย่างเดียว	-9.21353
มาตรการ	-9.2136
▁นี่	-9.21391
เชิง	-9.21427
is	-9.21475
ราว	-9.21568
ฝาก	-9.21606
ให้ได้	-9.21675
เสริม	-9.2174
ไก่	-9.22
ก็ตาม	-9.2206
สนุก	-9.22065
ส่วนหนึ่ง	-9.22121
แหละ	-9.22145
สัน	-9.22275
พันธุ์	-9.22298
อยากจะ	-9.22357
โทษ	-9.22448
หวัง	-9.2255
ของผม	-9.22754
เกาหลี	-9.22794
ตรงนี้	-9.22818
ชนิด	-9.22974
ปรับปรุง	-9.23
พร้อมกับ	-9.23127
ปู	-9.23154
ค่าย	-9.23206
กรรม	-9.23356
มาเป็น	-9.23433
ขัดแย้ง	-9.23499
ถ	-9.23643
อยากได้	-9.23649
เตือน	-9.2373
ความรู้	-9.23873
ลักษณะ	-9.23883
แถม	-9.23897
ลิ	-9.24153
รู้สึกว่า	-9.24155
โครงสร้าง	-9.24216
▁“	-9.24243
ก็ไม่ได้	-9.24261
สน	-9.24325
นคร	-9.24361
สี่	-9.24382
ซึ่งมี	-9.24446
โชว์	-9.24526
ฮ	-9.24686
คนร้าย	-9.24702
le	-9.24727
ไร่	-9.24748
ขนาดนี้	-9.24761
แผน	-9.24813
อัตรา	-9.24874
me	-9.24905
น้ําท่วม	-9.25024
ความเห็น	-9.25135
โท	-9.25165
ให้เป็น	-9.25196
กิ	-9.25235
ทําได้	-9.2537
เพชร	-9.2539
it	-9.25426
หวาน	-9.25431
ยืนยันว่า	-9.25439
ออนไลน์	-9.25463
เป	-9.25567
คลอง	-9.25589
ยื่น	-9.25599
ไปด้วย	-9.25823
ลํา	-9.2591
ความรุนแรง	-9.25945
ลาย	-9.25998
ทะเบียน	-9.26009
เป็นต้น	-9.26101
ย้าย	-9.26103
หล่อ	-9.26159
ไฟฟ้า	-9.26288
นอกจาก	-9.26315
ที่ไม่	-9.26348
ที่ได้รับ	-9.26352
พี	-9.26437
ิ่งแวดล้อม	-9.26604
บางอย่าง	-9.26777
200	-9.26785
สรุป	-9.26852
ขน	-9.2691
สัปดาห์	-9.27054
ชิ้น	-9.27087
สามี	-9.27166
ไปเลย	-9.27403
นก	-9.27417
ไม่ชอบ	-9.27509
อ้าง	-9.2752
ดังนี้	-9.27542
แมน	-9.27672
เดินทางไป	-9.27704
and	-9.27716
ได้ยิน	-9.27718
ไม่เห็น	-9.27742
เที่ยว	-9.27759
ที่อยู่	-9.27868
http	-9.27941
ยนต์	-9.28006
มุม	-9.28194
ไว	-9.28237
อง	-9.28301
วิธีการ	-9.28313
กุล	-9.28401
ที่ได้	-9.28495
จิต	-9.28515
ขี้	-9.28599
ถูกต้อง	-9.28695
กิจการ	-9.28771
กล่าวถึง	-9.289
โทรทัศน์	-9.28901
เหตุผล	-9.28914
ชู	-9.28927
แต่งตั้ง	-9.28973
▁หาก	-9.29127
เกินไป	-9.29134
▁ตอนนี้	-9.29157
กลับบ้าน	-9.29424
ไม่ว่าจะ	-9.2948
1.	-9.29585
สํานัก	-9.29664
z	-9.29858
ดีขึ้น	-9.29982
31	-9.30286
เอเชีย	-9.3041
ผู้ที่	-9.30542
กล้า	-9.30627
ใช่ไหม	-9.30636
สมาคม	-9.30721
ทําร้าย	-9.30723
ต้องมี	-9.30724
รสชาติ	-9.30737
ข้าม	-9.30744
ผ	-9.3082
ฉันจะ	-9.3088
no	-9.30952
กีฬา	-9.31248
รวดเร็ว	-9.31365
อย่างมาก	-9.31626
หู	-9.31758
รส	-9.32063
วิน	-9.32143
บ้า	-9.3222
มาถึง	-9.32359
ใดๆ	-9.32366
คอย	-9.32388
ลม	-9.32445
พวกนี้	-9.3253
ดอก	-9.3259
การแสดง	-9.32611
กรอบ	-9.32774
ฟุตบอล	-9.32842
ปฏิบัติการ	-9.32892
รพ	-9.32998
มือถือ	-9.33014
การผลิต	-9.33068
โต๊ะ	-9.33123
เฮ	-9.33138
กว้าง	-9.33245
▁ทั้งนี้	-9.33375
ชวน	-9.33441
ที่คุณ	-9.33486
ภายใต้	-9.3357
อุบัติเหตุ	-9.33577
เชิญ	-9.33592
ขับรถ	-9.33594
สมัคร	-9.33599
ใช้เวลา	-9.33771
นม	-9.33785
ได้รับความ	-9.33785
ซ์	-9.33791
ไม่อยาก	-9.33811
ตั้งใจ	-9.33848
สงสัย	-9.33884
เครื่องบิน	-9.33963
โพสต์	-9.33978
‘	-9.34028
ใช่มั้ย	-9.34057
นิยม	-9.34227
ภาษี	-9.34448
80	-9.3459
ยังไม่ได้	-9.34607
คนหนึ่ง	-9.34653
เล่า	-9.34683
อัล	-9.34935
คําสั่ง	-9.34946
ล้อ	-9.34986
เธ	-9.3505
มหา	-9.35312
ขยาย	-9.35326
เว	-9.35365
แบบนั้น	-9.35396
เขาก็	-9.35531
เกษตร	-9.35613
ที่ต้อง	-9.35752
แก้ไขปัญหา	-9.35846
มีอํานาจ	-9.35938
ครบ	-9.35971
สภา	-9.36083
วิเคราะห์	-9.36196
ที่ไหน	-9.36279
ไม่เป็น	-9.36336
รองรับ	-9.36351
จะมา	-9.36449
90	-9.36767
แบ่ง	-9.36776
ปกป้อง	-9.36847
ได้ดี	-9.3688
2.	-9.37055
การเปลี่ยน	-9.37084
ต่ํา	-9.37085
เสื้อผ้า	-9.37087
แนวทาง	-9.37092
ดึง	-9.37176
๊	-9.37293
ปืน	-9.37351
จึงได้	-9.37425
เลขาธิการ	-9.37851
รายชื่อ	-9.3787
ทําให้เกิด	-9.37909
ภรรยา	-9.38011
ไกล	-9.38067
เล่ม	-9.38082
หมายเหตุ	-9.38203
วัตถุ	-9.38259
!!!	-9.38261
โย	-9.38331
คอน	-9.38334
ปีนี้	-9.38352
อย่างยิ่ง	-9.38362
ล่า	-9.38371
อย่างน้อย	-9.38398
เลข	-9.38449
เอก	-9.38534
พระยะ	-9.38547
การปกครอง	-9.38562
ตัวแทน	-9.38614
ว่าเป็น	-9.38679
พื้น	-9.38739
ของตน	-9.38842
70	-9.38856
ต่อต้าน	-9.38877
ครึ่ง	-9.38952
๒	-9.39038
กล่อง	-9.39122
คิดเห็น	-9.392
สโมสร	-9.39215
ลงมา	-9.39221
เท้า	-9.39292
ร่วมมือ	-9.39332
เรื่องการ	-9.39346
▁ใช่	-9.39444
เขื่อน	-9.39451
สาธารณะ	-9.39536
ป้าย	-9.39617
ต่างชาติ	-9.39754
เหนื่อย	-9.39776
ช้าง	-9.39854
นักเตะ	-9.39958
เน้น	-9.40027
เกษตรกร	-9.40032
รูปแบบ	-9.40047
เหมือนเดิม	-9.40105
หุ้น	-9.40199
ประกัน	-9.4029
รัตน์	-9.40313
ในเดือน	-9.40397
ยาเสพติด	-9.40468
คาด	-9.40478
ของไทย	-9.4053
ป้า	-9.40535
คําตอบ	-9.40636
การใช้งาน	-9.40687
น้ําหนัก	-9.40703
de	-9.40738
ฟัน	-9.40767
ลอย	-9.40776
หลังจากที่	-9.40921
*	-9.41044
ed	-9.41093
อันนี้	-9.41167
แน่ๆ	-9.41182
เท่ากับ	-9.41233
กรุงเทพฯ	-9.41262
▁สําหรับ	-9.41275
ผี	-9.41275
ปฏิเสธ	-9.41305
มาให้	-9.41342
เป็นไปได้	-9.41376
▁อย่างไรก็	-9.41486
ในอนาคต	-9.41503
มักจะ	-9.41513
ร้าย	-9.41548
ขนาดใหญ่	-9.41558
พรุ่งนี้	-9.41593
โรงแรม	-9.41854
ไปถึง	-9.41891
นับ	-9.41901
การทํา	-9.41902
▁[	-9.41958
ปล	-9.41968
ให้ความ	-9.41985
ผลประโยชน์	-9.42002
ไข่	-9.42112
อีกแล้ว	-9.4213
บันทึก	-9.42198
or	-9.42262
เดือดร้อน	-9.42311
ปลาย	-9.42346
▁นอกจากนี้	-9.42401
หน้าจอ	-9.42408
กองทุน	-9.42521
โรงงาน	-9.42536
แข็งแรง	-9.42628
ทรัพย์	-9.42634
ที่ทําให้	-9.42637
อาวุธ	-9.42679
se	-9.42679
ทั่วประเทศ	-9.42789
วัง	-9.42794
และเป็น	-9.429
โอเค	-9.4296
ในปัจจุบัน	-9.43003
มองว่า	-9.43163
แมว	-9.43234
มูลนิธิ	-9.43305
\	-9.4334
เป็นธรรม	-9.43366
โปร	-9.43384
ระยะเวลา	-9.43455
ผู้ป่วย	-9.4351
รอด	-9.43581
หลวง	-9.43586
สะ	-9.43634
35	-9.43683
ตามกฎหมาย	-9.43688
อธิบาย	-9.4379
ๆๆ	-9.4401
เหล็ก	-9.44055
การสร้าง	-9.44377
ใช้งาน	-9.44423
เรื่องที่	-9.44627
เต้น	-9.44715
ทั้งคู่	-9.44734
กระทํา	-9.44806
แท้	-9.44819
ในขณะที่	-9.44974
ของนาย	-9.44974
เหมือนกับ	-9.45033
ตุลาคม	-9.45088
เพื่อไทย	-9.45125
เราต้อง	-9.45132
ทุน	-9.45224
ค่าใช้จ่าย	-9.45369
ขึ้นไป	-9.45456
ช้า	-9.45682
ย่อม	-9.45703
ผู้คน	-9.45725
เหล่านั้น	-9.45753
อีกด้วย	-9.45792
?"	-9.45819
เล็กน้อย	-9.45821
อนาคต	-9.4585
la	-9.45959
ได้มีการ	-9.46006
ชิน	-9.4604
ที่เคย	-9.46293
เชียร์	-9.46325
ชี้แจง	-9.46399
ยัน	-9.4642
ทีวี	-9.46426
แม่น้ํา	-9.46553
หิน	-9.46558
เกิดความ	-9.46651
ยอดเยี่ยม	-9.46669
▁ทําให้	-9.46672
เเล้ว	-9.46681
ระสิทธิภาพ	-9.46803
แข็ง	-9.46809
อย่างดี	-9.46957
รัฐประหาร	-9.46988
ความเข้าใจ	-9.46995
ความเร็ว	-9.47104
ฉะนั้น	-9.47398
ตอนที่	-9.47485
แข่งขัน	-9.47487
เมื่อปี	-9.47515
ซ้ํา	-9.47678
มีแต่	-9.47823
รองเท้า	-9.47846
for	-9.47874
เสียใจ	-9.47929
หัก	-9.47999
นายก	-9.48031
ชาธิปัตย์	-9.48077
ออ	-9.48174
▁อย่า	-9.48199
@	-9.48256
บาดเจ็บ	-9.48351
พื้นฐาน	-9.48439
ยุ	-9.48448
สุดๆ	-9.48479
โบ	-9.48527
ก่อ	-9.48565
ธรรมดา	-9.48741
ของรัฐ	-9.48782
แจก	-9.4887
ทั่วโลก	-9.48887
ไม่มีอะไร	-9.48993
มิน	-9.49014
ให้แก่	-9.4902
หายไป	-9.49037
กิโลเมตร	-9.49135
ไหล	-9.49235
บางส่วน	-9.49242
วัสดุ	-9.4933
ล้ม	-9.49351
มอบ	-9.49355
ยะ	-9.49493
ของรัฐบาล	-9.49647
ทั้งสิ้น	-9.4965
ซัก	-9.4968
▁เอา	-9.49713
รอย	-9.49738
เอกชน	-9.49765
ไม่รู้ว่า	-9.4979
ก่อนจะ	-9.49835
ความแตกต่า	-9.49848
ซม	-9.49957
โง่	-9.50023
ในระดับ	-9.50106
มูลค่า	-9.50122
ขอโทษ	-9.50254
คุยกัน	-9.50416
แห้ง	-9.50448
เช่นนี้	-9.50506
โดยไม่	-9.5065
รึเปล่า	-9.50657
บุก	-9.50661
ทน	-9.50721
ห์	-9.50831
หอม	-9.50833
เมนู	-9.50858
สะดวก	-9.50866
เดอะ	-9.50886
id	-9.509
สีดํา	-9.50912
you	-9.50916
ปริมาณ	-9.50948
กรุงเทพ	-9.50964
▁แม่	-9.50965
รบกวน	-9.51031
มีนาคม	-9.51091
ปะ	-9.5125
มีส่วนร่วม	-9.51267
โรง	-9.51296
การบริหาร	-9.513
ครม	-9.51358
ดัน	-9.51489
ภัณฑ์ที่	-9.51536
ของโลก	-9.51571
ในเมือง	-9.51573
กระจาย	-9.51574
ของผู้	-9.51713
สัญญาณ	-9.51738
ช่วยกัน	-9.51745
ได้เลย	-9.5197
จะถูก	-9.51991
2560	-9.52007
รัฐสภา	-9.52093
สีของผลิต	-9.52127
การชุมนุม	-9.52186
ร้อย	-9.52209
ิ	-9.52294
ม้า	-9.52303
อุ	-9.52327
ตลก	-9.52342
เมษายน	-9.52344
หมายความว่	-9.52378
พิสูจน์	-9.52414
ปล่อยให้	-9.52417
ลูกสาว	-9.52515
ฉาย	-9.52517
คิว	-9.5252
ยินดี	-9.52602
พงษ์	-9.52649
▁อายุ	-9.52681
หัวเราะ	-9.52695
ทีมชาติ	-9.52709
😍	-9.52734
อย่างที่	-9.52752
ของพระองค์	-9.52783
โดยการ	-9.52864
แหล่ง	-9.52879
ผบ	-9.52934
เงื่อนไข	-9.53082
ดําเนิน	-9.5312
ลูกชาย	-9.53132
จู	-9.53255
การตรวจสอบ	-9.5331
ธันวาคม	-9.53447
เขาจะ	-9.53465
วิจารณ์	-9.53474
เลื่อน	-9.53501
ชั่วคราว	-9.53502
๓	-9.53506
ภาวะ	-9.5364
ตั้งค่าการ	-9.53739
ไปหา	-9.53942
ฟ้อง	-9.53971
ฉาก	-9.54086
be	-9.54154
เห็นด้วย	-9.54165
คลื่น	-9.5419
แสดงบนเว็บ	-9.54201
ที่ประชุม	-9.54214
อาร์	-9.54238
บ้านเมือง	-9.54261
ละเอียด	-9.54315
ยังไม่มี	-9.54319
ไซต์อาจมี	-9.54354
ที่เขา	-9.54374
ี	-9.5439
กําลังจะ	-9.54397
กระทู้	-9.54514
ทรัพยากร	-9.54527
เยาวชน	-9.54555
ไท	-9.54624
ผู้บริหาร	-9.54655
กันยายน	-9.54735
เล็กๆ	-9.54749
ไปดู	-9.54767
ศิริ	-9.54838
จิตใจ	-9.5487
จะทํา	-9.54898
เดินทางมา	-9.5492
32	-9.54929
เอ็ม	-9.54939
วน	-9.55079
คําแนะนํา	-9.55089
องค์การ	-9.55113
ลงทุน	-9.55119
แชร์	-9.55153
มกราคม	-9.55227
ลึก	-9.55264
พฤติกรรม	-9.55284
เทียบกับ	-9.55294
คนละ	-9.55447
ฝน	-9.5546
ได้ไหม	-9.55516
ห้า	-9.55542
พม่า	-9.55556
อาเซียน	-9.55676
หมาย	-9.55764
หนี้	-9.55818
ทราบว่า	-9.55911
การค้า	-9.55952
ไม่ควร	-9.55955
เครื่องมือ	-9.55981
สัมผัส	-9.55997
โจ	-9.56067
ปลูก	-9.56146
ร้องไห้	-9.56208
ศึก	-9.5624
การลงทุน	-9.56382
มาเลเซีย	-9.56383
จะให้	-9.56396
บวก	-9.56401
เวที	-9.56534
สบาย	-9.56536
ไม่ทัน	-9.56552
ตกลง	-9.56562
ปราบปราม	-9.56575
เหรียญ	-9.56624
คุณสมบัติ	-9.5666
ma	-9.56749
ได้แล้ว	-9.56883
ก็เลย	-9.57058
เทพมหานคร	-9.57063
▁ชอบ	-9.57116
ทุกวันนี้	-9.57147
ตอนนั้น	-9.57236
นักแสดง	-9.57301
ปฏิรูป	-9.57338
ดับ	-9.57345
ผู้จัดการ	-9.57393
สั้น	-9.57467
นพ	-9.57474
แดน	-9.57565
2559	-9.57734
ผมจะ	-9.57804
ทางด้าน	-9.57819
แย่	-9.57964
ดนตรี	-9.58063
สิบ	-9.58101
ชิง	-9.58347
▁จะ	-9.58401
500	-9.5841
ลู	-9.58436
กลิ่น	-9.58507
▁ข้า	-9.58516
ไซ	-9.58595
ผกก	-9.58642
สํานักข่าว	-9.58644
งกันจากการ	-9.58699
แพง	-9.58737
300	-9.5874
พฤษภาคม	-9.5879
อาทิตย์	-9.58802
เว็บไซต์	-9.58819
ทัน	-9.58844
แนวคิด	-9.58866
ยกเลิก	-9.58907
ชุมนุม	-9.58916
มีโอกาส	-9.58923
ไบเบิล	-9.58979
thailand	-9.58991
▁ก็	-9.59016
ตื่น	-9.59021
ประสาน	-9.59026
เรื่องของ	-9.59098
อัยการ	-9.59109
ของคน	-9.59288
แถว	-9.59346
thai	-9.59401
เด็กๆ	-9.59437
๑	-9.59457
สิงหาคม	-9.59503
อิสระ	-9.59524
เวียดนาม	-9.59558
ดวง	-9.59559
ดิฉัน	-9.59564
36	-9.59598
โกง	-9.5969
ในชีวิต	-9.59714
บ่อย	-9.59738
ดีมาก	-9.59771
ผสม	-9.59775
ไม่ยอม	-9.59813
ความสําคัญ	-9.59885
ภายหลัง	-9.59968
เผา	-9.60063
สื่อมวลชน	-9.60108
จิน	-9.60117
รมว	-9.60133
▁ใคร	-9.60136
สมบูรณ์	-9.6017
อมพิวเตอร์	-9.60216
แกนนํา	-9.60224
แชมป์	-9.60239
นี่คือ	-9.60257
2562	-9.60297
ล่วงหน้า	-9.60299
หลุด	-9.6033
จอ	-9.60379
เปน	-9.60419
ไซส์	-9.60578
โปรด	-9.60715
จันทร์	-9.60733
โดยตรง	-9.60774
ประชา	-9.60782
หลักการ	-9.60936
38	-9.6102
ว่าง	-9.61071
เป็นประธาน	-9.61078
ตลอดเวลา	-9.61087
น้อยกว่า	-9.61184
3.	-9.61205
เดียวกับ	-9.61207
อาทิ	-9.61281
รวย	-9.61321
เช่นนั้น	-9.61383
ตะวันตก	-9.61427
บรรจุ	-9.61499
วางแผน	-9.61512
ที่เหลือ	-9.61531
ผู้โดยสาร	-9.61534
😭	-9.61703
แม่ง	-9.6185
สูตร	-9.61865
ยูไนเต็ด	-9.6192
สะพาน	-9.61944
โคตร	-9.61988
ทําการ	-9.62112
เนื้อหา	-9.62131
ยุโรป	-9.62282
ล้าง	-9.62301
ผมว่า	-9.62374
ประธานาธิบ	-9.62532
q	-9.62578
45	-9.62647
ทั้งนั้น	-9.62721
>	-9.62731
น์	-9.62776
an	-9.62781
แต่ไม่	-9.62817
เพราะว่า	-9.62856
แล้วนะ	-9.62885
ลีก	-9.62906
▁พวกเขา	-9.62951
เผยแพร่	-9.6296
ผู้อํานวย	-9.63056
จะมีการ	-9.63098
ช่วยให้	-9.63107
รีวิว	-9.63186
2019	-9.63212
ฝึก	-9.63263
เป็นทางการ	-9.63274
2558	-9.63283
วร	-9.63358
59	-9.63425
พัง	-9.6343
▁พอ	-9.63444
en	-9.63543
ส่งผลให้	-9.63582
ch	-9.63619
ปัจจัย	-9.63637
งั้น	-9.63644
คําถาม	-9.63749
ที่กําลัง	-9.63768
ให้คุณ	-9.6378
จัดตั้ง	-9.63797
ผู้ตาย	-9.63814
ประสบความ	-9.63816
%	-9.63907
ภาคใต้	-9.63952
ที่มีความ	-9.64081
ซ้าย	-9.64085
ว่ะ	-9.64088
หน	-9.64094
us	-9.64118
ให้ประชาชน	-9.6412
อินเดีย	-9.64314
สําหรับการ	-9.64499
เต็มที่	-9.6451
ไลน์	-9.64592
ลําบาก	-9.64632
ความเชื่อ	-9.64793
เอส	-9.64804
รบ	-9.64981
ง่ายๆ	-9.65002
ข้าพเจ้า	-9.65073
จนกระทั่ง	-9.6508
▁"&	-9.65118
ตระกูล	-9.65137
ไรก็ตาม	-9.65246
เหมาะ	-9.6527
เมื่อไหร่	-9.65369
ไม	-9.6537
เน็ต	-9.654
เสี่ยง	-9.65434
มิถุนายน	-9.65438
จําเลย	-9.65507
คัดเลือก	-9.65592
เย	-9.6565
แปลก	-9.65671
สีขาว	-9.65691
?,	-9.65717
ระเบียบ	-9.65802
อุณหภูมิ	-9.65822
ของพวกเขา	-9.65896
พาณิชย์	-9.65903
การปฏิรูป	-9.65911
ได้อย่างไร	-9.65985
ทุกครั้ง	-9.66005
ลาว	-9.66037
จังหวะ	-9.6612
พร้อมด้วย	-9.66168
ถวาย	-9.6617
ในเวลา	-9.66212
สไตล์	-9.66216
รับรอง	-9.66236
กล	-9.66265
สงขลา	-9.66296
ต้องทํา	-9.66299
กัมพูชา	-9.6634
ต้องใช้	-9.66417
เม็ด	-9.6644
ดารา	-9.66445
บรรดา	-9.66482
กระดาษ	-9.66487
พงศ์	-9.66534
ฝีมือ	-9.66572
บางที	-9.66672
เหล่า	-9.66766
ท้าย	-9.66781
ป่วย	-9.66817
นุ	-9.66831
ไม่เอา	-9.66875
ซอง	-9.6691
ยอมรับว่า	-9.66951
โปรแกรม	-9.66958
เอาไป	-9.67018
แต่งงาน	-9.6704
ขับเคลื่อน	-9.67067
สส	-9.67092
บริสุทธิ์	-9.67135
ั	-9.67179
เป็นห่วง	-9.6729
สะสม	-9.67353
ของพระเจ้า	-9.67455
ระวัง	-9.67464
โอน	-9.67503
มีอะไร	-9.67519
ep	-9.67521
ตู้	-9.67537
คุยกับ	-9.67548
ของกลุ่ม	-9.67553
หลง	-9.67591
กังวล	-9.67612
ไม่จําเป็น	-9.67804
จะได้รับ	-9.67823
ขวา	-9.67827
พลาด	-9.67845
กาแฟ	-9.67903
บุตร	-9.67969
เปิดตัว	-9.67977
▁ขณะที่	-9.68107
่ง	-9.68163
เชื่อมั่น	-9.68177
ยกเว้น	-9.68267
สาธารณสุข	-9.68432
ซอย	-9.68483
จะเอา	-9.68495
โจมตี	-9.68517
ที่นั่ง	-9.68619
พึ่ง	-9.68628
เฟ	-9.68678
คุณแม่	-9.68732
คล้าย	-9.68745
pa	-9.68795
พรรคประ	-9.68872
na	-9.68964
ย่าน	-9.69013
แล้วค่ะ	-9.69083
คู	-9.69096
เมื่อวาน	-9.69098
ร้องเรียน	-9.69127
เงินเดือน	-9.69135
มม	-9.69157
โดยใช้	-9.69286
เกลียด	-9.69379
ดอกไม้	-9.69403
ศิลปิน	-9.69441
คอม	-9.69515
นุ่ม	-9.69653
ริน	-9.69663
กาย	-9.69744
เช	-9.69821
กี่	-9.69975
มาตลอด	-9.70012
ตัวเลข	-9.70056
2557	-9.70057
โฆษณา	-9.7007
ไม่ว่า	-9.70092
รถไฟ	-9.70139
ได	-9.70171
เพียงแค่	-9.70268
รุ	-9.70281
34	-9.70436
ปีที่แล้ว	-9.70519
พระมหา	-9.70678
ลิน	-9.70709
ควรจะ	-9.70784
ลาก	-9.70872
เป็นไปตาม	-9.70883
44	-9.70886
แขน	-9.70909
▁คือ	-9.70916
▁อยาก	-9.70962
เติม	-9.71035
แล	-9.71062
ฯลฯ	-9.71063
ทธิมนุษยชน	-9.71144
ช่วงเวลา	-9.71147
วิชา	-9.71217
เพจ	-9.71225
ในงาน	-9.71264
ในโลก	-9.71289
นําเสนอ	-9.71339
ต้องการให้	-9.71404
•	-9.71433
คงจะ	-9.71437
ภารกิจ	-9.71471
แค่ไหน	-9.71478
บ่	-9.71558
แตกต่างกัน	-9.71558
ขยะ	-9.71591
ที่มา	-9.71612
คุณจะ	-9.71673
หลายครั้ง	-9.71691
อู	-9.71735
หลอก	-9.71752
รัสเซีย	-9.71754
แถลง	-9.71764
33	-9.71782
นํามา	-9.71894
line	-9.719
ly	-9.71978
พยาบาล	-9.7201
บก	-9.72038
การเงิน	-9.72039
พุทธ	-9.72099
▁เพื่อ	-9.72144
จ้าง	-9.72154
ยาย	-9.72162
ก้าว	-9.72163
2561	-9.72169
เดช	-9.72178
▁งั้น	-9.72181
ขั้นตอน	-9.72198
ถ่ายรูป	-9.72217
มู	-9.72223
คนนั้น	-9.72285
งาม	-9.723
ติดตั้ง	-9.72325
ชื่อเสียง	-9.72359
ฉุกเฉิน	-9.72376
จับกุม	-9.72406
จักร	-9.72521
ในวัน	-9.72568
เรื่อยๆ	-9.72627
แม้แต่	-9.72659
ต้องไป	-9.72669
จริงจัง	-9.72749
เอามา	-9.72783
ขนม	-9.72791
๋	-9.72809
เหมาะสม	-9.72934
การรักษา	-9.72986
สํารวจ	-9.7302
คัมภีร์	-9.73038
รี่	-9.73151
▁จากนั้น	-9.73155
สูญเสีย	-9.73188
โบราณ	-9.73251
st	-9.7333
ชลบุรี	-9.73372
ให้เรา	-9.73482
เมื่อเวลา	-9.7353
ตบ	-9.73533
สุดยอด	-9.73621
นักกีฬา	-9.73623
ก่อนที่	-9.73641
ก่อเหตุ	-9.73685
มีลักษณะ	-9.73713
▁คน	-9.73766
แล้วครับ	-9.73815
พฤศจิกายน	-9.73858
ให้เขา	-9.7388
ค่อย	-9.73908
เวอร์	-9.73918
จขกท	-9.74065
ทอด	-9.74168
สอดคล้อง	-9.74235
ช่องทาง	-9.74245
ไม่น่า	-9.74267
กรกฎาคม	-9.74279
กม	-9.74314
กิจ	-9.74337
คาดว่า	-9.74504
ทั่ว	-9.74514
สถาน	-9.74579
อ้างว่า	-9.74581
หมื่น	-9.74661
ไปไหน	-9.74726
วรายงานว่า	-9.74735
ร้องเพลง	-9.74773
กุมภาพันธ์	-9.74816
ซาน	-9.74881
รึ	-9.74882
ษ	-9.74951
อ้วน	-9.74952
คงไม่	-9.74965
ฝัน	-9.75049
ได้ว่า	-9.75093
ทับ	-9.75099
เชียงราย	-9.75145
เงียบ	-9.75175
ค้นหา	-9.75182
วินิจฉัย	-9.75195
เป็นเวลา	-9.75275
ก่อนที่จะ	-9.75301
การเกษตร	-9.7535
วัยรุ่น	-9.75375
ใกล้เคียง	-9.75403
ขั้น	-9.75457
ความสะอาด	-9.75563
ในวันนี้	-9.75605
สยาม	-9.75702
สวยงาม	-9.75727
เสรีภาพ	-9.75761
ตัดสิน	-9.75824
เป็นตัว	-9.75833
ขนาดนั้น	-9.75863
เอาชนะ	-9.75954
การเดินทาง	-9.7598
ภูมิภาค	-9.7604
ผู้บริโภค	-9.7612
ตัวละคร	-9.76158
คือการ	-9.76172
ที่ผม	-9.76222
อเมริกัน	-9.76228
เลน	-9.76309
แท้จริง	-9.76327
ta	-9.76393
▁น้อง	-9.76462
สายตา	-9.76475
ลับ	-9.76492
เยี่ยม	-9.7652
ความคืบหน้	-9.76597
สาเหตุ	-9.76624
เพื่อนๆ	-9.76655
39	-9.76675
ริม	-9.7669
ผอ	-9.76725
ก็คง	-9.76827
ที่สามารถ	-9.76882
หลายๆ	-9.77056
การพิจารณา	-9.77061
พระเอก	-9.77181
เจอกัน	-9.77215
0%	-9.77274
ห่วง	-9.7729
อนุรักษ์	-9.77297
นี่แหละ	-9.77311
สูงขึ้น	-9.77392
ชี	-9.77443
ไว้ใน	-9.77513
งบ	-9.77572
ยุทธศาสตร์	-9.77573
หลับ	-9.7759
ความสุข	-9.77609
นําไป	-9.77641
as	-9.77725
จะใช้	-9.77736
รวบรวม	-9.77752
ยาม	-9.77784
ไม่ไหว	-9.77816
ปั่น	-9.77838
แจ้งความ	-9.77857
ชั่ว	-9.77931
ไปได้	-9.77944
พระราชทาน	-9.77957
one	-9.77964
ลงพื้นที่	-9.77967
อาศัย	-9.78007
ในครั้งนี้	-9.78056
ภูมิ	-9.78136
คุม	-9.78177
กางเกง	-9.78228
วอน	-9.78291
แป้ง	-9.78315
เมืองไทย	-9.78323
ท่ามกลาง	-9.78381
พยาน	-9.78447
สองคน	-9.78498
ฤดูกาล	-9.78526
ตึก	-9.78541
ต่อสู้	-9.78579
โค้ช	-9.78611
ร้านอาหาร	-9.78613
สะท้อน	-9.78672
เซอร์	-9.78737
เครียด	-9.78809
ไปเที่ยว	-9.78811
58	-9.78817
ความสนใจ	-9.78911
ขํา	-9.78944
ลุ้น	-9.7895
ปกครอง	-9.78973
นักวิชาการ	-9.78999
เสือ	-9.79018
จอด	-9.79045
▁ต้อง	-9.79187
37	-9.79187
▁ไม่ใช่	-9.79213
ภู	-9.79245
ดํารง	-9.79263
ใช้ชีวิต	-9.79297
สนช	-9.79401
เดินหน้า	-9.79417
คริสเตียน	-9.79422
อุทยาน	-9.7951
แน่น	-9.79532
ประสงค์	-9.79553
แม้ว่า	-9.79601
ผัว	-9.79674
ถุง	-9.79702
กี	-9.79803
เช็ค	-9.79809
ศิลปะ	-9.79872
เหมาะกับ	-9.79903
ทุ่ม	-9.79914
หลาน	-9.79922
ยิ่งใหญ่	-9.79987
แบรนด์	-9.79987
do	-9.80024
เบื่อ	-9.80042
ขวัญ	-9.80073
เชี่ยวชาญ	-9.80221
ro	-9.80272
ไม่เข้าใจ	-9.80326
ทั้งที่	-9.80337
การต่อสู้	-9.80346
ภาษาอังกฤษ	-9.80372
ที่ว่า	-9.80429
ให้มีการ	-9.80477
เส	-9.8049
ขอนแก่น	-9.80502
สถิติ	-9.80515
เยอะมาก	-9.80533
คิม	-9.80544
2-3	-9.80564
ต้นไม้	-9.8057
เติบโต	-9.80597
sa	-9.80634
ย้ํา	-9.80647
เหยื่อ	-9.8073
นิ่ง	-9.80792
ทางการ	-9.80801
--	-9.80827
ผ่านไป	-9.80863
เท่าที่	-9.80926
นานาชาติ	-9.81038
ไปที่	-9.81056
กอ	-9.81091
เกมส์	-9.81092
วรรณ	-9.811
ยอง	-9.81132
ซ่อม	-9.81274
ยี่ห้อ	-9.81285
พูดว่า	-9.81287
ของท่าน	-9.81294
my	-9.81384
ผัก	-9.81486
🤣	-9.81508
เปรียบ	-9.8151
ra	-9.81556
สิ่งนี้	-9.81585
ที่สอง	-9.81612
ขบวนการ	-9.81639
จะสามารถ	-9.8164
มิได้	-9.81686
ทีมชาติไทย	-9.81711
ยังเป็น	-9.81729
ไม่ถึง	-9.8178
▁ไม่มี	-9.81822
พุ่ง	-9.81829
ขวบ	-9.81952
ให้การ	-9.8217
▁ท่าน	-9.82239
https	-9.82256
▁เจ้า	-9.82271
สงสาร	-9.82319
ถึงจะ	-9.82408
รายงานว่า	-9.82516
บังคับ	-9.82555
บ่อ	-9.82583
เท่าไร	-9.82593
ผิดกฎหมาย	-9.82671
ร้านนี้	-9.82726
ประจําปี	-9.82826
สาธุ	-9.8283
มาตั้งแต่	-9.82881
ๆๆๆ	-9.82883
▁มันเป็น	-9.83013
แท	-9.83033
พระบรม	-9.83096
ใส	-9.83105
กุ้ง	-9.83257
ข้อเท็จ	-9.833
อยู่บน	-9.83352
พันธ์	-9.8338
▁ฉันจะ	-9.83444
หยิบ	-9.83469
ตั้งอยู่	-9.83527
ผลกระทบ	-9.83558
แสดงผล	-9.83671
▁พ่อ	-9.83704
พันธมิตร	-9.83744
อภิสิทธิ์	-9.83759
เเต่	-9.83784
เกิดจาก	-9.83846
อัด	-9.8385
ฟิน	-9.83986
ประเมิน	-9.84015
โช	-9.84111
กันไป	-9.84135
เผด็จการ	-9.84217
แข่ง	-9.84317
ในทาง	-9.84434
เกาหลีใต้	-9.84461
😁	-9.84518
ปลอม	-9.84618
ชาวนา	-9.8462
2550	-9.84662
ถอด	-9.84831
ที่ปรึกษา	-9.84861
ในเขต	-9.84886
เช้า	-9.84893
ในอดีต	-9.84925
กู้	-9.84965
จาน	-9.85041
ไล	-9.85131
สัญลักษณ์	-9.85133
ด้วยว่า	-9.85172
อาจเป็น	-9.85174
un	-9.85203
สีแดง	-9.85293
พบกับ	-9.85414
เอล	-9.85418
ฉ	-9.8552
อินเตอร์	-9.85521
บู	-9.85547
ยิ่งขึ้น	-9.85563
แต้ม	-9.85646
จ้าอยู่หัว	-9.85658
เฉลี่ย	-9.8566
ภูเก็ต	-9.85668
นึกถึง	-9.8569
สะอาด	-9.85694
หน้าตา	-9.85749
ระยะ	-9.8576
แปล	-9.85842
ในที่สุด	-9.85865
น่าจะเป็น	-9.85884
พวกมัน	-9.85955
ที่นั่น	-9.85955
คิ	-9.85989
มาใช้	-9.86061
แค	-9.86083
ฮี	-9.86107
ความหมาย	-9.86143
ฉลาด	-9.86158
ภัย	-9.86165
อม	-9.86238
กัด	-9.86248
by	-9.86251
เชื่อมโยง	-9.86346
got	-9.86403
แต่พอ	-9.86473
โกรธ	-9.86517
ได้มั้ย	-9.86531
ถ้าคุณ	-9.86532
จอม	-9.86541
สืบ	-9.86553
ดีไซน์	-9.86558
กระจก	-9.86565
สุนัข	-9.86609
ซี่	-9.86636
นั่นแหละ	-9.86641
▁ดู	-9.86649
อาศัยอยู่	-9.86694
แต่อย่างใด	-9.86765
ออสเตรเลีย	-9.86872
มีอาการ	-9.86929
ที่ต้องการ	-9.8694
เชื้อ	-9.86963
หลบหนี	-9.86982
สนามบิน	-9.87143
แ	-9.87195
ออกแบบ	-9.87246
ด่วน	-9.8736
คว้า	-9.87394
หอ	-9.87505
เข้าถึง	-9.87514
ใหม่ๆ	-9.87557
พิธี	-9.87598
เศร้า	-9.8762
เขียว	-9.87622
ไปสู่	-9.87648
ห้าง	-9.8769
▁วันที่	-9.87753
mi	-9.87786
ก็ดี	-9.87798
นักข่าว	-9.87816
ผู้ปกครอง	-9.8785
อด	-9.87935
สตรี	-9.87974
สมควร	-9.88074
กระตุ้น	-9.88107
กฎ	-9.88134
แห่งหนึ่ง	-9.88271
man	-9.88323
ผู้สมัคร	-9.88325
มันไม่	-9.88327
lo	-9.88341
ขอบ	-9.8837
ไปตาม	-9.88389
ผิดพลาด	-9.8841
เดี่ยว	-9.8855
▁ขอให้	-9.88599
▁โอเค	-9.88628
ขวด	-9.88639
เฮีย	-9.8864
พืช	-9.88713
อาย	-9.88732
เพศ	-9.88752
ดอกเบี้ย	-9.88762
ได้ยังไง	-9.88782
พลาสติก	-9.88793
จันทร์โอชา	-9.88873
เศษ	-9.88902
เพื่อความ	-9.88911
ดอลลาร์	-9.88929
เฟซบุ๊ก	-9.89024
นาม	-9.89054
บุ	-9.89156
กลไก	-9.89161
เซต	-9.893
คนงาน	-9.89301
มั้ยคะ	-9.89316
ด้วยนะ	-9.89378
ชาวไทย	-9.89389
หล่อน	-9.89488
โซน	-9.89559
~	-9.896
สร้างสรรค์	-9.89605
ที่ฉัน	-9.89784
เดี๋ยวนี้	-9.8988
ลูกจ้าง	-9.9003
ภาครัฐ	-9.90077
เลว	-9.90106
เห	-9.90155
เปล่า	-9.90158
ใกล้ชิด	-9.90169
เทศบาล	-9.90268
ประสานงาน	-9.9028
ภาคเหนือ	-9.90338
พี่ชาย	-9.90373
ไฮ	-9.90404
ของตนเอง	-9.90418
ข้อตกลง	-9.90455
56	-9.90471
เมน	-9.9048
ในสังคม	-9.90534
ผู้เสียหาย	-9.90541
ย่า	-9.90554
สุวรรณ	-9.90609
เป็นจริง	-9.90663
ย่อย	-9.9069
ของบริษัท	-9.90764
เอ็น	-9.90778
แห่งนี้	-9.90856
ดูเหมือน	-9.90961
หนอง	-9.90966
เนอะ	-9.90993
ขโมย	-9.91037
ราม	-9.9105
มานาน	-9.9106
เจน	-9.91168
จี้	-9.91268
ครอง	-9.91283
นักร้อง	-9.91284
62	-9.91348
▁เมื่อเวลา	-9.91351
ti	-9.91439
เฉยๆ	-9.91511
with	-9.91516
เช่นเดียว	-9.91675
ทิ	-9.91703
อีกที	-9.91745
250	-9.91754
ข้อเสนอ	-9.91775
คุ้ม	-9.918
ตกใจ	-9.91871
go	-9.91973
ต่ํากว่า	-9.91985
เซลล์	-9.92001
สวรรค์	-9.92003
เจรจา	-9.92029
แสดงว่า	-9.92073
ประกอบการ	-9.92109
กําลังกาย	-9.92306
ก่อให้เกิด	-9.92323
คนขับ	-9.92402
โหวต	-9.92549
ด้วยค่ะ	-9.92578
ธน	-9.92615
ปรากฏ	-9.92632
การจัดการ	-9.92645
บอกให้	-9.92646
ฮัน	-9.92651
วาระ	-9.92726
😊	-9.92772
สิ้น	-9.92785
นิว	-9.92948
ต้า	-9.92958
แอน	-9.93065
ข้อหา	-9.93079
ินโดนีเซีย	-9.93212
อนุญาตให้	-9.93267
อัพ	-9.93317
วัฒน์	-9.93373
จัดทํา	-9.93394
วิทยาลัย	-9.9343
ใบอนุญาต	-9.93452
มาดู	-9.93492
ที่อยู่ใน	-9.93501
▁แค่	-9.93505
หนา	-9.93517
้ง	-9.93521
ควาย	-9.93525
หลักสูตร	-9.9353
แฟนคลับ	-9.93555
สากล	-9.93654
ลาน	-9.93679
ล้านคน	-9.93741
ไปหมด	-9.93764
ผู้ประกอบ	-9.9379
บางครั้ง	-9.93874
โชคดี	-9.93877
ในส่วนของ	-9.93895
ในกลุ่ม	-9.93905
วิจัย	-9.94003
ในรอบ	-9.94004
บัง	-9.94047
ที่มีการ	-9.9412
คัดค้าน	-9.94165
ไม่เป็นไร	-9.94172
ผู้เล่น	-9.94292
at	-9.94306
ทร	-9.94483
ใ	-9.94498
จดหมาย	-9.94521
ประทับใจ	-9.94529
นี้เป็น	-9.94677
หก	-9.9473
pro	-9.94751
อย่างไรก็	-9.94765
ปรับตัว	-9.94793
ตัง	-9.94859
สังเกต	-9.94877
ตื่นเต้น	-9.94945
สงบ	-9.94946
สวัสดิการ	-9.94955
แอร์	-9.94958
บทบาท	-9.94964
นั่นคือ	-9.94979
ผู้ช่วย	-9.95031
อิอิ	-9.95085
ฟอร์ม	-9.95104
ไม่กล้า	-9.95128
เพ	-9.95162
การทุจริต	-9.95193
ความยาว	-9.95288
^^	-9.95289
ด้านหน้า	-9.95349
วันเกิด	-9.9536
แถลงการณ์	-9.95386
ฮิ	-9.95423
ถ้าไม่	-9.95475
จ่ายเงิน	-9.9552
วันละ	-9.95527
เผื่อ	-9.95565
ตาราง	-9.95607
เหี้ย	-9.95669
ชัน	-9.95706
เข้มแข็ง	-9.95903
corpus	-9.95922
ฐ	-9.95985
๔	-9.96004
กองกําลัง	-9.96017
ชื่นชม	-9.96067
บ้านเลขที่	-9.96099
โป	-9.96162
ว่ามี	-9.96189
อิ่ม	-9.96193
ใช้บริการ	-9.96281
ที่แท้จริง	-9.96325
ทัพ	-9.96354
บัว	-9.96405
แฟชั่น	-9.96432
เรามี	-9.96574
ประท้วง	-9.96596
เหลือง	-9.96652
สิงคโปร์	-9.96678
ต้อนรับ	-9.96694
ควบคุมตัว	-9.96712
นิสัย	-9.96718
กําจัด	-9.96831
ne	-9.96846
มั่นใจ	-9.96858
ดง	-9.96941
ขยายตัว	-9.96954
ไชย	-9.96964
สวม	-9.97078
2018	-9.97312
ทฤษฎี	-9.97355
นางเอก	-9.97373
คม	-9.97388
การที่	-9.97431
อร	-9.97436
ดีใจ	-9.97545
99	-9.97593
คุ	-9.97607
๕	-9.97621
ตัวนี้	-9.97645
เข้าใจว่า	-9.9769
ผู้ชุมนุม	-9.9774
57	-9.97808
พายุ	-9.97824
เป็นเพียง	-9.97836
ไม่มีการ	-9.97849
บิ๊ก	-9.97936
เอว	-9.97937
อะไรเลย	-9.98007
ฉลอง	-9.9807
ไม่พอใจ	-9.98084
ไปอีก	-9.98094
ทุกข์	-9.98113
49	-9.98147
กอด	-9.98195
รับบาดเจ็บ	-9.98201
ด่าน	-9.98206
ช่วงนี้	-9.98282
ประหยัด	-9.98284
▁หนู	-9.98364
mo	-9.98402
จัดงาน	-9.98496
นครราชสีมา	-9.98506
ชัด	-9.9852
แลกเปลี่ยน	-9.98539
จะช่วย	-9.98555
แง	-9.98575
บันเทิง	-9.98589
การ์ด	-9.98598
มหาชน	-9.98601
es	-9.98695
สว	-9.98753
เคารพ	-9.98786
so	-9.9887
เชื่อมต่อ	-9.98912
แจ	-9.98929
เจาะ	-9.98933
คําพูด	-9.98943
สกุล	-9.99015
ka	-9.9915
ลุย	-9.99284
ไ	-9.9929
ออกอากาศ	-9.99301
สติ	-9.99365
การ์ตูน	-9.99402
เป็นที่	-9.99443
เสา	-9.99612
ทองคํา	-9.99637
ตรงข้าม	-9.99714
ความพยายาม	-9.99748
นึก	-9.99749
ื	-9.99768
ปอ	-9.99779
ได้เห็น	-9.99786
เข้าไปใน	-9.9985
ซ้อม	-9.99872
นิดหน่อย	-9.99876
<	-9.99889
นางสาว	-9.99994
กระดูก	-9.99996
ต้องสงสัย	-10.0002
ยุ่ง	-10.0008
ลาออก	-10.0009
วุ่นวาย	-10.0012
ความเสี่ยง	-10.0013
รัง	-10.0013
เพื่อนบ้าน	-10.0014
อันเป็น	-10.0018
ท่อ	-10.0018
คี	-10.002
ตอนแรก	-10.002
โกหก	-10.0024
โยน	-10.0025
สถานะ	-10.0033
ฉันก็	-10.0036
el	-10.0041
ต้องมา	-10.0051
▁เมื่อวัน	-10.0059
te	-10.0063
ด้านหลัง	-10.0066
ตามหา	-10.0069
นอกจากนั้น	-10.0071
ปรึกษา	-10.0072
ฟิลิปปินส์	-10.0074
we	-10.0079
▁",	-10.0082
ข่าวสาร	-10.0086
ประชากร	-10.0087
นะค่ะ	-10.0102
ในบ้าน	-10.0102
ปีใหม่	-10.0106
ผลิตจาก	-10.011
ชื่อดัง	-10.0112
ขัด	-10.0117
ที่ทํา	-10.0119
แอ	-10.012
2556	-10.0127
อัลบั้ม	-10.0138
ตั๋ว	-10.014
ลิง	-10.0142
การปฏิบัติ	-10.015
กระทั่ง	-10.015
เนอร์	-10.0159
day	-10.0159
ดุ	-10.016
อบ	-10.0161
ในระบบ	-10.0166
แปลว่า	-10.0168
รักษาความ	-10.0172
ประชามติ	-10.0176
วุฒิ	-10.0183
ทางเลือก	-10.0186
ทุกฝ่าย	-10.0188
ของขวัญ	-10.0189
ขุด	-10.0203
หลายอย่าง	-10.0205
แม้จะ	-10.0206
ป่าว	-10.0232
ถือว่าเป็น	-10.0244
โจร	-10.0245
ในตัว	-10.0247
ปัตตานี	-10.0253
บ่น	-10.0253
ครีม	-10.0255
ใช้ได้	-10.026
มองเห็น	-10.0264
คบ	-10.0266
นาฬิกา	-10.0267
แนะนําให้	-10.0268
ทิศทาง	-10.027
da	-10.0276
พร้อมกัน	-10.0283
แลก	-10.0286
นายจ้าง	-10.0286
ชินวัตร	-10.0287
สูงกว่า	-10.0301
มงคล	-10.0302
พวกนั้น	-10.0307
ศูนย์กลาง	-10.0311
ยย	-10.0311
ผู้บัญชา	-10.0315
กรณีที่	-10.0321
พิทักษ์	-10.0322
คืนนี้	-10.0323
face	-10.0323
แล้วว่า	-10.0326
400	-10.0328
สิงห์	-10.0334
แถลงข่าว	-10.0334
มันมี	-10.0338
เตะ	-10.0344
ดินแดน	-10.0347
di	-10.0347
เยอรมนี	-10.0351
ที่รัก	-10.0361
คาร์	-10.0362
ได้เป็น	-10.0364
▁นาง	-10.0364
เกอร์	-10.0365
ผิดปกติ	-10.037
มีทั้ง	-10.0384
มุ่ง	-10.0385
ไม่ออก	-10.0388
นําไปสู่	-10.0396
มั้ง	-10.0397
ด์	-10.0401
สนิท	-10.0406
จึงเป็น	-10.0407
ad	-10.0409
▁โอ้	-10.0409
ครอบคลุม	-10.0415
ชั่น	-10.042
โพ	-10.0425
ขุน	-10.0426
เล่มนี้	-10.043
ธง	-10.043
ถ้าเรา	-10.0432
บุรีรัมย์	-10.0446
ผลการ	-10.0449
ฝรั่ง	-10.0451
ทดสอบ	-10.0462
ให้ฉัน	-10.0465
กี้	-10.0467
ตามมา	-10.0472
บาร์	-10.0473
ภายนอก	-10.0474
อนุมัติ	-10.0479
ยังได้	-10.0483
มีใคร	-10.0483
แลนด์	-10.0484
ฝัง	-10.0488
มวย	-10.0493
ตลอดจน	-10.0493
ในลักษณะ	-10.0494
facebook	-10.0494
อยู่ที่นี่	-10.0498
ปก	-10.0501
เสรี	-10.0504
▁เราจะ	-10.0505
ให้คน	-10.0506
พูดคุย	-10.0509
คําพิพากษา	-10.0511
มีส่วน	-10.0519
ป่ะ	-10.0519
สันติภาพ	-10.052
สื่อสาร	-10.0522
วาด	-10.0523
su	-10.0527
42	-10.0535
คร	-10.0539
หวังว่า	-10.054
สเปน	-10.0541
เองก็	-10.0542
ค่าจ้าง	-10.0545
ด้วยซ้ํา	-10.0547
ในห้อง	-10.0551
▁ยัง	-10.0553
เทียน	-10.0558
มีผล	-10.0559
2016	-10.056
ก้อน	-10.0561
เขาได้	-10.0562
ทัวร์	-10.0564
ศรีธรรมราช	-10.0565
ยิ่งลักษณ์	-10.0568
เมื่อคืน	-10.057
แค่นี้	-10.0581
รถจักรยาน	-10.0581
มิติ	-10.0583
อีกต่อไป	-10.0584
ไม่มีทาง	-10.0585
ถ้วย	-10.0588
โหด	-10.0593
ถอน	-10.0595
สงกรานต์	-10.06
ex	-10.0603
ฮ่องกง	-10.0604
เช่า	-10.0604
แต่ว่า	-10.0607
เด่น	-10.0612
แต่เรา	-10.0613
สีของแต่ละ	-10.0614
ทราย	-10.0615
ลิเวอร์พูล	-10.0621
ซาก	-10.0622
เป็นสิ่ง	-10.0629
อธิบดีกรม	-10.0631
47	-10.0631
▁ขอบคุณ	-10.0633
เดอร์	-10.0633
,"	-10.0633
เข้ม	-10.0635
บอร์ด	-10.0644
2551	-10.0649
ที่ทํางาน	-10.0651
ไปกับ	-10.0652
หิว	-10.0654
คงต้อง	-10.066
ก็สามารถ	-10.0667
ทําเนียบ	-10.0674
ตรงไหน	-10.0677
หมดแล้ว	-10.0678
เป็นหลัก	-10.0687
เทคนิค	-10.0691
ทรู	-10.0695
เด็ด	-10.0695
มาหา	-10.0703
บาน	-10.0704
วินาที	-10.071
ขนาดเล็ก	-10.0713
ถึงความ	-10.0718
เปลี่ยนไป	-10.0719
หารือ	-10.073
ดอน	-10.0732
อีกคน	-10.0732
อุ้ม	-10.074
ก่อตั้ง	-10.0742
เพียงแต่	-10.0748
ค้า	-10.0752
แตกต่าง	-10.0754
รักษ์	-10.0761
บิ	-10.0762
สิ้นสุด	-10.0767
75	-10.0768
▁ชั้น	-10.0779
รู้เรื่อง	-10.0779
ลุก	-10.0779
ตั้งแต่ปี	-10.0782
วิทยุ	-10.0783
เซน	-10.0792
ความร้อน	-10.0793
กระทบ	-10.0797
เราได้	-10.0797
ระบาย	-10.0798
จะเริ่ม	-10.0806
ประจําวัน	-10.0812
ในยุค	-10.0818
การแพทย์	-10.0822
แล้วจะ	-10.0823
4.	-10.0825
เว็บ	-10.0827
🏻	-10.0827
ร่า	-10.083
ปัญญา	-10.0831
แดก	-10.0836
รหัส	-10.0843
ขอความ	-10.0845
แต่ยัง	-10.0845
ยาบ้า	-10.0847
เพื่อเป็น	-10.0847
new	-10.0849
ในสมัย	-10.085
เพียงพอ	-10.085
ฤทธิ์	-10.0851
มากค่ะ	-10.0863
เท่	-10.0869
ยิ่งกว่า	-10.0877
ไม่ทราบ	-10.0877
61	-10.0878
เฝ้า	-10.0881
เซ็น	-10.0882
🙏	-10.089
อย่างอื่น	-10.089
มาร์	-10.0894
ha	-10.0897
ทนายความ	-10.09
พักผ่อน	-10.0902
โอลิมปิก	-10.0908
ไหมคะ	-10.091
ก้าวหน้า	-10.091
เป็นพิเศษ	-10.0914
national	-10.0929
สืบสวน	-10.093
ปอร์เซ็นต์	-10.0939
ba	-10.0941
นําเข้า	-10.0945
เสด็จ	-10.0946
การณ์	-10.0946
น้ําตาล	-10.0948
หนาว	-10.0951
ทางสังคม	-10.0951
นี่มัน	-10.0951
46	-10.0952
ไปทํางาน	-10.0953
ให้เกิด	-10.0953
vi	-10.0953
มั่นใจว่า	-10.0956
กระสุน	-10.0957
ถาวร	-10.0957
ซิตี้	-10.0958
เพราะมัน	-10.0958
พวกคุณ	-10.0964
กดดัน	-10.0965
กําหนดให้	-10.0971
นึกว่า	-10.0977
ได้ไง	-10.0977
ข้างนอก	-10.0978
เข้มข้น	-10.0985
ติดเชื้อ	-10.0987
ระบอบ	-10.099
ไม่ถูก	-10.0991
นี่เป็น	-10.0992
ส่วนที่	-10.0993
ทําให้เรา	-10.0996
อิตาลี	-10.0996
ปีก่อน	-10.0998
pe	-10.1003
ด้วยครับ	-10.1009
;&'	-10.101
เสียดาย	-10.101
ประชารัฐ	-10.1011
แบบไหน	-10.1014
ปร	-10.1015
ลั่น	-10.102
เค้าก็	-10.1025
ตัวจริง	-10.1025
หลีกเลี่ยง	-10.1029
มาร่วม	-10.1035
เกณฑ์	-10.1036
งี้	-10.1041
ตี้	-10.1051
กันได้	-10.1054
ราษฎร	-10.1067
8%	-10.107
ของพรรค	-10.1081
ประดับ	-10.1085
ขบวน	-10.1086
ยุติ	-10.1087
เป้า	-10.1089
อํานวยการ	-10.1093
ปวด	-10.1097
ครอบครอง	-10.11
▁'	-10.1102
ฮะ	-10.1109
ไปก่อน	-10.111
53	-10.1112
65	-10.112
พระบาท	-10.1121
ด้วยนะคะ	-10.1121
สมบัติ	-10.1121
รับประกัน	-10.1125
2549	-10.1128
up	-10.1132
ต่อการ	-10.1133
ทําตาม	-10.1145
ถิ่น	-10.1149
รองนายก	-10.115
กําไร	-10.1151
กันเอง	-10.1154
ปม	-10.1162
เป็นคนที่	-10.1163
ไหมครับ	-10.1169
โชค	-10.1171
ของมนุษย์	-10.1173
รัตน	-10.1187
มีเงิน	-10.1196
▁นั่น	-10.1201
ทีมงาน	-10.1202
ทนาย	-10.1208
และผู้	-10.1211
▁เหมือน	-10.1215
เป็นเพื่อน	-10.1219
ดีนะ	-10.1223
ฟื้นฟู	-10.1224
เยอรมัน	-10.1225
กํา	-10.1231
แก๊ง	-10.1238
รับฟัง	-10.1238
มากเลย	-10.1241
พอสมควร	-10.1242
อน	-10.1242
ได้นํา	-10.1245
มืด	-10.1247
ฟู	-10.1247
ยั่งยืน	-10.1254
pi	-10.1254
am	-10.1259
ประการ	-10.1263
ต่างกัน	-10.1267
มัด	-10.1269
ถอย	-10.1271
150	-10.1271
วงการ	-10.1273
ข้อกล่าวหา	-10.1274
ฝุ่น	-10.1278
แต่เมื่อ	-10.1282
ส่อง	-10.1283
กําแพง	-10.1283
การจัด	-10.1289
li	-10.1295
ที่พัก	-10.1305
มีค่า	-10.1305
จดทะเบียน	-10.1308
แอด	-10.131
น่าสนใจ	-10.1312
วันนั้น	-10.1332
การดําเนิน	-10.1332
▁กู	-10.1333
เจ็บปวด	-10.1334
เทศกาล	-10.1335
2553	-10.1338
ac	-10.134
ทําอย่างไร	-10.1341
ไม่อยากให้	-10.1344
สาวๆ	-10.1344
ทบทวน	-10.1345
พุทธศาสนา	-10.1349
ือ	-10.1349
ประเพณี	-10.135
รับประทาน	-10.1352
เก้าอี้	-10.1355
เชื่อม	-10.136
สั่งให้	-10.1361
คริสต์	-10.1366
สังกัด	-10.1372
ทุ่ง	-10.1374
ผลผลิต	-10.1379
น้ําตา	-10.1385
งู	-10.1388
ทดลอง	-10.1389
ค้าง	-10.1392
หรือยัง	-10.1396
ฮือ	-10.14
ผบก	-10.1402
กสทช	-10.1404
จักรพรรดิ	-10.1406
ไหว	-10.1408
การสอบสวน	-10.1414
ที่ร้าน	-10.1416
ปลด	-10.1423
จึงต้อง	-10.1429
หันมา	-10.1432
หนุน	-10.1432
น่ารักมาก	-10.1435
อุดรธานี	-10.1444
เก็บไว้	-10.1445
กินข้าว	-10.1446
สัตว์ป่า	-10.145
ดูด	-10.1453
เยอะๆ	-10.1454
บริจาค	-10.1457
พร้อมทั้ง	-10.146
เจมส์	-10.1471
นี้จะ	-10.1475
ว่าทําไม	-10.1476
ทางเพศ	-10.1478
ตั้งแต่วัน	-10.1482
หายใจ	-10.1483
ชัก	-10.149
ให้เห็น	-10.1491
ประสาท	-10.1493
▁เค้า	-10.1494
bo	-10.1501
ต้นทุน	-10.1505
แทบ	-10.1507
สิน	-10.1509
กราบ	-10.1514
ที่เห็น	-10.1515
เจ้าตัว	-10.1518
ในระหว่าง	-10.1522
ีย	-10.1528
ของมัน	-10.1531
ผลไม้	-10.1536
	-10.1541
กันอยู่	-10.1545
ระยะทาง	-10.1556
๊ก	-10.1557
แพ	-10.1561
คนนึง	-10.1566
64	-10.157
ยแดนภาคใต้	-10.1572
ว่าด้วย	-10.1576
this	-10.1577
ลงทะเบียน	-10.1578
สัดส่วน	-10.1579
พ้น	-10.1586
นับถือ	-10.1589
ของเจ้า	-10.1592
ปลี่ยนแปลง	-10.1593
สังคมไทย	-10.1594
ออกมาจาก	-10.16
และไม่	-10.1601
โฆษก	-10.1601
▁ความ	-10.1603
ยาวนาน	-10.1605
ที่ซ่อนไว้	-10.1613
นับเป็น	-10.1618
แผล	-10.1618
ผิดหวัง	-10.162
ใช้งานได้	-10.1624
การส่งออก	-10.1625
เอฟ	-10.1642
ทัก	-10.1644
อยู่ดี	-10.165
ผลักดัน	-10.1657
ดาบ	-10.1659
ให้มัน	-10.1659
ทุกๆ	-10.1663
00	-10.1663
ไม่ได้รับ	-10.1663
▁บางที	-10.1666
[1]	-10.1668
เเ	-10.1669
ปัด	-10.1672
แพร่	-10.168
อยากรู้	-10.1681
กว่านี้	-10.1682
มีหน้าที่	-10.1682
เฉียงเหนือ	-10.1683
อ่า	-10.1684
พลิก	-10.1687
กับคุณ	-10.1688
ดูข้อความ	-10.1694
💕	-10.1704
ไม่ได้เลย	-10.1704
ในแต่ละ	-10.1705
ga	-10.1705
พระองค์ทรง	-10.1705
สัม	-10.1709
สาธารณรัฐ	-10.1713
มีชีวิต	-10.1713
ิก	-10.1713
ความหวัง	-10.1716
หมุน	-10.1718
อักษร	-10.1719
ฝ่ายค้าน	-10.1724
มีแนวโน้ม	-10.1726
▁เห็น	-10.1732
ว่าเรา	-10.1737
อนุ	-10.1742
สํารอง	-10.1757
บาป	-10.1758
พระเยซู	-10.1761
แต่ละคน	-10.1764
ยาน	-10.1769
ถัง	-10.177
รัชกาลที่	-10.1771
ตรี	-10.1776
เห็นชอบ	-10.1779
คนไข้	-10.1779
บ่อยๆ	-10.1784
อาวุธปืน	-10.1791
ว่าเขา	-10.1792
ว่ามัน	-10.1795
แถบ	-10.1796
ลี่	-10.1797
วิกฤติ	-10.1799
ที่ไม่มี	-10.1801
น้อยลง	-10.1806
ถ้าเป็น	-10.181
มีอยู่	-10.1811
ไม่กี่	-10.1813
ขนส่ง	-10.1813
▁โดยมี	-10.1814
ที่เหมาะสม	-10.1816
ในเกม	-10.1818
เลีย	-10.1821
อย่างหนัก	-10.1821
เจ้าชาย	-10.1821
ไพ	-10.1829
ในจังหวัด	-10.1831
คืออะไร	-10.1836
love	-10.1838
ที่น่า	-10.1839
ไม่สนใจ	-10.1846
ความพร้อม	-10.1853
จอห์น	-10.1861
ผมคิดว่า	-10.1862
ศาเซลเซียส	-10.1864
▁1.	-10.1875
ผัด	-10.1877
กันอย่าง	-10.1882
ขอบคุณครับ	-10.1888
มาที่นี่	-10.1889
ยศ	-10.1891
ทู	-10.1891
ดูแล้ว	-10.1896
ดราม่า	-10.1897
2555	-10.1902
คาดหวัง	-10.1902
ลงโทษ	-10.1905
หน้าที่ของ	-10.1905
ter	-10.1907
1-2	-10.1912
สบายใจ	-10.1918
cr	-10.1919
ก็แค่	-10.1923
บี้	-10.1927
เหล้า	-10.1932
ดําเนินงาน	-10.194
ยังไงก็	-10.194
7.	-10.1943
กํากับ	-10.1943
ได้อีก	-10.1944
เกิดอะไร	-10.1948
ตามมาตรา	-10.1949
มาจากการ	-10.1954
เลยว่า	-10.1961
ส้ม	-10.1961
spoil	-10.1962
ry	-10.1963
คุณพ่อ	-10.1964
เทียบ	-10.1964
ทุกท่าน	-10.1965
จ้ะ	-10.1966
แกะ	-10.1968
ตอบว่า	-10.1969
ผู้แทน	-10.1971
เหอะ	-10.1972
ซัง	-10.1976
เบล	-10.1978
วันเสาร์	-10.1983
ราคาถูก	-10.1983
มากนัก	-10.1983
ห่างจาก	-10.1986
ตามความ	-10.1987
มีเพียง	-10.1991
มูล	-10.1993
ซ่า	-10.1993
2,	-10.1993
▁แก	-10.1993
แบน	-10.1994
เพลิง	-10.1995
ฉบับที่	-10.1996
๗	-10.1998
มีลูก	-10.2005
มั่ง	-10.2006
บทความ	-10.2006
เรียง	-10.2008
ไส้	-10.2015
ระหว่างการ	-10.2019
กลาโหม	-10.2025
ไปจนถึง	-10.2029
เด็ดขาด	-10.2029
100%	-10.2031
มากเกินไป	-10.2033
โต้	-10.2033
ตํานาน	-10.2036
ในรูปแบบ	-10.2036
เร็วๆ	-10.2037
ดี้	-10.2043
มีเรื่อง	-10.2054
ใครจะ	-10.2056
ใช้อํานาจ	-10.2062
ปีที่ผ่านม	-10.2066
ขออนุญาต	-10.2067
ก่อการร้าย	-10.207
โว	-10.2071
ce	-10.2074
กับความ	-10.2092
ชิงแชมป์	-10.2092
เบน	-10.2092
กระทําผิด	-10.2092
ตกแต่ง	-10.2093
นั้นเป็น	-10.2096
ตาก	-10.2098
ที่เธอ	-10.2099
43	-10.21
tv	-10.2103
เรือน	-10.2104
สีเขียว	-10.2108
หลบ	-10.2109
▁นี่คือ	-10.211
กําเนิด	-10.211
เดินไป	-10.2113
รับรู้	-10.2118
พิษ	-10.212
ส่วนมาก	-10.2132
พี่สาว	-10.2133
สว่าง	-10.2138
ศีรษะ	-10.2142
เกี่ยว	-10.2143
ให้มี	-10.2143
ลุค	-10.2145
54	-10.2146
คูณ	-10.2155
▁จึง	-10.2161
วัว	-10.2162
ของทีม	-10.2166
รัน	-10.2169
บูชา	-10.217
คอนเสิร์ต	-10.2181
ดัก	-10.2183
ไม่รู้จัก	-10.2185
สต	-10.2191
หาง	-10.2194
สรรเสริญ	-10.2196
😘	-10.2196
pantip	-10.2198
ละเมิด	-10.2199
ชายแดน	-10.22
ผู้ว่าราช	-10.2203
ไม่นาน	-10.2205
▁นี่เป็น	-10.2206
▁โดยเฉพาะ	-10.2206
ais	-10.221
)"	-10.2212
แกน	-10.2216
คัพ	-10.2226
กระบี่	-10.2226
หอย	-10.2233
ปรากฏว่า	-10.2237
คนใหม่	-10.2247
ไม่ต้องการ	-10.2253
ถล่ม	-10.2254
วันหยุด	-10.2255
เมื่อเดือน	-10.2257
ในทุก	-10.2263
กับฉัน	-10.2266
สั่งซื้อ	-10.227
อยุ่	-10.2272
บํารุง	-10.2273
ผู้เขียน	-10.2281
มวลชน	-10.2286
การควบคุม	-10.2288
กันมา	-10.2291
ราด	-10.2292
ได้มี	-10.2293
ลิตร	-10.2295
รวมกัน	-10.2297
เผยว่า	-10.23
จ๊ะ	-10.2301
๖	-10.2307
มุสลิม	-10.2308
ติ่ง	-10.2308
ไม่เหมือน	-10.2312
สตาร์	-10.2313
ครัว	-10.2319
bnk	-10.2319
สดใส	-10.232
ภูเขา	-10.2326
อัตโนมัติ	-10.2337
ฺ	-10.2337
การตํารวจ	-10.2338
ขยับ	-10.2339
ีเมียร์ลีก	-10.2339
ไปเรื่อยๆ	-10.2339
อีกทั้ง	-10.2346
รณรงค์	-10.2346
2554	-10.2347
อาจมี	-10.2349
ตลาดนัด	-10.2355
ทําแบบนี้	-10.236
จนท	-10.2369
ระมัดระวัง	-10.2372
ธร	-10.2379
//	-10.238
วิชาชีพ	-10.2382
มาช่วย	-10.2383
เหรียญทอง	-10.2384
แฮ	-10.2384
เคน	-10.2385
งานนี้	-10.2392
ic	-10.2395
อะไรที่	-10.2401
กับเพื่อน	-10.2406
ยะลา	-10.2408
เสนอให้	-10.2418
ปิ	-10.2431
นั่นเอง	-10.2432
ิกส์	-10.2436
ต้ม	-10.2439
ประมูล	-10.2442
หุ่น	-10.2443
อยู่ด้วย	-10.2443
เทอ	-10.2445
ปฏิบัติตาม	-10.2445
หญ้า	-10.2448
มาร์ค	-10.2449
อาชญากรรม	-10.2451
ในครอบครัว	-10.2453
เพื่อการ	-10.2455
พัฒนาการ	-10.2457
ค่อยๆ	-10.2464
๊ะ	-10.2465
ปั้น	-10.2468
โดยรวม	-10.2474
เจ๊	-10.2475
ทะ	-10.2483
แด	-10.2487
พูดอะไร	-10.2489
sp	-10.2491
เคส	-10.2491
เนีย	-10.25
ถ้ามี	-10.2501
แจ้งว่า	-10.2503
ทดแทน	-10.2507
ให้ผม	-10.2507
พระนคร	-10.2514
อีกอย่าง	-10.2514
▁พวกเรา	-10.2515
กับเขา	-10.2516
ผู้ใช้	-10.2516
สุทธิ	-10.2521
ปัก	-10.2522
ไม่อาจ	-10.2525
ธรรมศาสตร์	-10.253
เข้ากับ	-10.2535
แห่	-10.2543
เดอ	-10.2545
ชิม	-10.2546
ศตวรรษที่	-10.2551
บังคับใช้	-10.2554
ไว้ก่อน	-10.2555
อีสาน	-10.2562
รู้จักกัน	-10.2563
โมง	-10.2563
เบื้องหลัง	-10.2566
แทง	-10.2567
อิสราเอล	-10.2568
ตรงนั้น	-10.2569
ให้ดี	-10.2571
นรก	-10.2573
ล็อก	-10.2574
ja	-10.2577
โค้ง	-10.2578
ที่มีอยู่	-10.2578
โดยไม่มี	-10.2579
ไปทํา	-10.2579
คนดี	-10.258
ผูก	-10.2582
ราก	-10.2584
per	-10.2591
วันจันทร์	-10.2591
สงสัยว่า	-10.2592
เลิศ	-10.2593
จะเกิดขึ้น	-10.2605
อยู่อาศัย	-10.2606
แต่จะ	-10.2607
ชายฝั่ง	-10.2623
ปลุก	-10.2627
ล์	-10.2628
อย่างหนึ่ง	-10.263
นิตยสาร	-10.2632
ซิน	-10.2632
ก็มา	-10.2641
ซิม	-10.2642
เลยทีเดียว	-10.2643
ปฏิบัติหน้	-10.2643
เพิ่มความ	-10.2648
ศร	-10.2652
มาทํา	-10.2653
เรย	-10.2654
69	-10.2665
จนกว่า	-10.2668
เสื้อแดง	-10.2668
มุ	-10.2672
วันอาทิตย์	-10.2674
เท่าเทียม	-10.2679
เป็นอะไร	-10.2681
เร่งด่วน	-10.2681
นี้มี	-10.2687
ร้ายแรง	-10.2694
นับตั้งแต่	-10.27
out	-10.27
และยัง	-10.2701
สําคัญของ	-10.2702
ทุจริต	-10.2703
นันท์	-10.2704
ข้างหน้า	-10.271
ผู้อื่น	-10.2714
อะไรบ้าง	-10.2714
ทําผิด	-10.2716
แอล	-10.2716
โดดเด่น	-10.2719
เมอร์	-10.2719
ถูกจับ	-10.2726
เคยมี	-10.2731
มากกว่านี้	-10.2733
ถึงเวลา	-10.2741
มีคําสั่ง	-10.2741
กันว่า	-10.2742
▁เวลา	-10.2744
พลเมือง	-10.2747
ด้านการ	-10.2748
▁เดี๋ยว	-10.2751
ํ	-10.2756
ร้านค้า	-10.2757
ปล่อยตัว	-10.2757
ประสบ	-10.2758
วาย	-10.2764
แข้ง	-10.2766
การออกแบบ	-10.2767
แม	-10.2768
แข็งแกร่ง	-10.2771
ให้ดู	-10.2771
เจ้าพระยา	-10.2773
ทูต	-10.2776
ยืด	-10.2777
ผ่านทาง	-10.2778
การสื่อสาร	-10.278
สายการบิน	-10.2781
น้องชาย	-10.2781
คนจน	-10.2782
จะส่ง	-10.2784
น้องสาว	-10.2787
นราธิวาส	-10.2792
ราชวงศ์	-10.2795
52	-10.2804
จุน	-10.2804
อย่าไป	-10.2807
เป็นแบบ	-10.281
ทีเดียว	-10.2814
ลื่น	-10.282
▁ลูก	-10.2822
พอใจ	-10.2824
แนะ	-10.2825
ฆ	-10.2828
สร	-10.2838
เป็นแบบนี้	-10.284
ation	-10.2844
ภัทร	-10.2844
จราจร	-10.2846
มาได้	-10.2853
แขก	-10.2853
จิง	-10.2857
ผลกระทบจาก	-10.2858
เซฟ	-10.2861
ศรัทธา	-10.2861
การเรียน	-10.2862
โอ้	-10.2865
ใบหน้า	-10.2867
ชุดนี้	-10.2868
ส่งผลกระทบ	-10.2869
คลอด	-10.2872
set	-10.2877
	-10.2878
ได้ง่าย	-10.2879
ไปให้	-10.288
▁ไม่ได้	-10.289
ส่งออก	-10.2891
คลัง	-10.2893
ในไทย	-10.2894
แต่ต้อง	-10.2897
▁ตํารวจ	-10.2908
ปราสาท	-10.2908
เพราะเรา	-10.2911
ที่น่าสนใจ	-10.2912
2552	-10.2912
พวกเธอ	-10.2913
กรธ	-10.2915
อีกหลาย	-10.2917
การกระทรวง	-10.2919
ปรียบเทียบ	-10.292
สวยมาก	-10.2929
ประวิตร	-10.293
เซล	-10.2933
ธรรมเนียม	-10.2935
2017	-10.2937
::	-10.2943
เจ้าหญิง	-10.2947
ผู้มี	-10.295
ขัน	-10.2951
ในใจ	-10.2953
มารับ	-10.2953
พลอย	-10.2958
ดูดี	-10.2959
ge	-10.2961
หม้อ	-10.2962
เธอจะ	-10.2963
ห้องน้ํา	-10.2965
งค์	-10.2972
วิชาการ	-10.2973
ให้ข้อมูล	-10.2974
ในด้าน	-10.2976
โปรโมชั่น	-10.2984
กระโดด	-10.2986
2015	-10.2988
แมนเชสเตอร	-10.2989
ตลอดไป	-10.2989
หมี	-10.2994
ไม่พอ	-10.2995
วิดีโอ	-10.2998
จะตาย	-10.2999
ไต	-10.3
ปีก	-10.3003
ผู้กํากับ	-10.3004
mon	-10.3005
แต่มัน	-10.3006
บอย	-10.3011
ก็ไม่มี	-10.3013
กติกา	-10.3017
โพส	-10.3021
เฝ้าระวัง	-10.3022
ยักษ์	-10.303
เด้อ	-10.3042
จะนํา	-10.3051
คุณหมอ	-10.3053
เจ็ด	-10.3059
วาน	-10.306
แย่ง	-10.3063
เต็มไปด้วย	-10.3068
โกะ	-10.3072
นัย	-10.3073
มาด้วย	-10.3079
ทะลุ	-10.3081
ไต้หวัน	-10.3083
41	-10.3085
อัคร	-10.3089
ล้วน	-10.3095
ซัน	-10.3097
ชอบธรรม	-10.3099
เนียน	-10.31
รับทราบ	-10.3101
และให้	-10.3102
เหตุผลที่	-10.3103
▁สวัสดี	-10.3104
หญิงสาว	-10.3114
ตามลําดับ	-10.3114
มันคือ	-10.3119
▁ถ้าคุณ	-10.312
เงา	-10.3122
รอน	-10.3128
มีหลาย	-10.313
66	-10.3131
ไปซื้อ	-10.3132
กาล	-10.3133
ู้แทนราษฎร	-10.3139
ที่ยัง	-10.3141
รถไฟฟ้า	-10.3146
อุ่น	-10.3146
หรือว่า	-10.3148
เป็นใคร	-10.3151
▁พวก	-10.3151
นเทอร์เน็ต	-10.3153
เรน	-10.3155
ที่จะต้อง	-10.3155
คํานึงถึง	-10.3162
ar	-10.3166
เบียร์	-10.3169
ล้อม	-10.3169
สมเด็จพระเ	-10.317
▁แม้	-10.3171
ก๊าซ	-10.3172
ไม่มีปัญหา	-10.3172
เวร	-10.3181
มีจํานวน	-10.3187
ราง	-10.3191
โจทก์	-10.3193
68	-10.3197
พระบาทสมเด	-10.32
ซอ	-10.3205
เงินสด	-10.3212
63	-10.3214
1,000	-10.3217
ระบายน้ํา	-10.3218
ุบลราชธานี	-10.3218
คราวนี้	-10.3219
มติ	-10.3222
เราว่า	-10.3222
ผู้ผลิต	-10.3223
ปฏิบัติงาน	-10.3223
รร	-10.3226
แต่กลับ	-10.3228
ไปหน่อย	-10.3228
อีกหนึ่ง	-10.3229
ลูกหลาน	-10.3233
วินัย	-10.3241
เรือนจํา	-10.3243
โซเชียล	-10.3245
ไม่ทราบว่า	-10.325
▁หลัง	-10.3255
ทิศ	-10.3255
ไว้วางใจ	-10.3262
ล้มเหลว	-10.3263
จาง	-10.3265
อพยพ	-10.3267
เออ	-10.3267
สิริ	-10.3268
วงเงิน	-10.3269
ไม่มีความ	-10.3271
มีเหตุผล	-10.3273
ก็พอ	-10.3274
ทวี	-10.3275
รัช	-10.3281
ผ่านมา	-10.3283
news	-10.3284
ผลกระทบต่อ	-10.3285
ต้องเป็น	-10.3285
ประกอบกับ	-10.3289
topic	-10.3289
ส่งต่อ	-10.3291
เค้ก	-10.3292
กับเรา	-10.3296
ค์	-10.3296
ซึ่งจะ	-10.3299
ยุบ	-10.3304
ิต	-10.3306
77	-10.3306
การจราจร	-10.3309
ยุทธ	-10.3315
วิญญาณ	-10.3317
ปู่	-10.3321
เลขที่	-10.3324
หาร	-10.3326
ko	-10.333
ภาษาไทย	-10.3332
ปีแล้ว	-10.3333
ภาคประชาชน	-10.3334
อยากเห็น	-10.3342
มีมติ	-10.3343
ออน	-10.3344
ฟี	-10.3344
ผ่อน	-10.3347
นน	-10.3348
็	-10.3351
เรียบ	-10.3352
มันไม่ใช่	-10.3353
เพราะเป็น	-10.3354
😆	-10.336
มีเวลา	-10.336
09	-10.3361
โรงไฟฟ้า	-10.3362
อุปสรรค	-10.3363
▁คนที่	-10.3364
ธิ	-10.3365
วู	-10.337
เธอก็	-10.3372
▁ตอน	-10.3373
วิถี	-10.3376
ig	-10.3377
หลุม	-10.3379
▁มึง	-10.3381
ยัย	-10.3383
▁สวัสดีค่ะ	-10.3384
หัน	-10.3384
รวมไปถึง	-10.3387
เฉียงใต้	-10.3388
เฟส	-10.3392
วุฒิสภา	-10.3396
จุดที่	-10.3396
ลงนาม	-10.3405
ที่เมือง	-10.3405
นาค	-10.3406
ท่าอากาศยา	-10.341
มหาดไทย	-10.3412
สวัสดิ์	-10.3416
^	-10.342
โสด	-10.3427
ประเสริฐ	-10.3429
รัฐมนตรีว่	-10.3429
เอ้ย	-10.343
ขู่	-10.3432
น่ากลัว	-10.3432
ราบ	-10.3434
เพื่อที่จะ	-10.3438
ประเทศชาติ	-10.3442
ขี่	-10.3443
ไปทาง	-10.3443
▁สิ่งที่	-10.3447
มอ	-10.3453
กล่าวต่อว่	-10.3456
fa	-10.346
นิยาย	-10.3465
เราไม่	-10.3472
เคยเป็น	-10.3476
โก้	-10.3477
๙	-10.3481
การแก้ไข	-10.3483
จะทําอะไร	-10.3485
เพื่อสร้าง	-10.3487
แล้วล่ะ	-10.349
หลักเกณฑ์	-10.349
การสอน	-10.3492
สักที	-10.3496
รินทร์	-10.3497
▁ฉันคิดว่า	-10.3498
กว่าเดิม	-10.3501
ป้องกันและ	-10.3504
8.	-10.3506
มิตร	-10.351
ศรีอยุธยา	-10.3511
ต่อหน้า	-10.3517
อร์	-10.3519
คนอื่นๆ	-10.3519
เหลือเกิน	-10.3525
กุญแจ	-10.3529
เพราะมี	-10.3531
ระดับสูง	-10.3532
เชื่อถือ	-10.3533
ตรวจค้น	-10.3536
นปช	-10.3536
ไม่งั้น	-10.354
เหงา	-10.3541
เป็นประจํา	-10.3546
ไปอย่าง	-10.3556
ni	-10.3559
อาบน้ํา	-10.3565
พรหม	-10.357
จยย	-10.357
ให้ผู้	-10.3574
ประชาคม	-10.3579
ระยอง	-10.3581
แกล้ง	-10.3582
เขิน	-10.3585
;""	-10.3597
ตามปกติ	-10.3598
แต่เป็น	-10.3602
ู	-10.3608
ด้วยตัวเอง	-10.3621
ทั้งๆที่	-10.3626
และนาย	-10.3633
เป็นเด็ก	-10.3634
ให้เธอ	-10.3635
เวลาที่	-10.3638
ชล	-10.3641
จมูก	-10.3642
ss	-10.3646
เกิดการ	-10.3647
การคลัง	-10.3648
ก็น่าจะ	-10.3649
สามารถใช้	-10.365
จีบ	-10.3652
จังหวัดชา	-10.3653
ภาคเอกชน	-10.3654
เราไป	-10.3656
น้องๆ	-10.3657
ke	-10.3658
คิดเป็น	-10.3661
ตู	-10.3663
จนทําให้	-10.367
วันศุกร์	-10.3672
นวัตกรรม	-10.3673
กฏหมาย	-10.3681
วิกฤต	-10.3688
อะไรกัน	-10.3691
จําคุก	-10.3695
ในคดี	-10.3696
ชะ	-10.3697
เราสามารถ	-10.3697
เพื่อนร่วม	-10.3699
ทั้งวัน	-10.37
ห่าง	-10.3705
ศิลป์	-10.3709
ดีเอสไอ	-10.371
เมฆ	-10.3712
คลิกเพื่อ	-10.3714
ทอ	-10.3716
ไม่น้อย	-10.3717
ว้า	-10.372
ที่ตั้ง	-10.372
ซื่อสัตย์	-10.3726
ทําไมไม่	-10.3726
รับจ้าง	-10.3727
แวะ	-10.3738
เตรียมตัว	-10.3743
ยืม	-10.3743
ระดับโลก	-10.3747
ตรงกับ	-10.3748
หนึ่งที่	-10.3749
ถึงขั้น	-10.3751
ที่รู้จัก	-10.3751
หลักประกัน	-10.3752
การเจรจา	-10.3753
67	-10.3754
หลักทรัพย์	-10.3756
ยง	-10.3756
ยกระดับ	-10.3758
วิช	-10.3759
กวน	-10.376
คว้าแชมป์	-10.3765
ดัชนี	-10.3767
เป็นสมาชิก	-10.3767
ก็ไป	-10.3768
มณี	-10.377
คริส	-10.3771
โพธิ์	-10.3773
หประชาชาติ	-10.3774
ซ้อน	-10.3774
ชาร์จ	-10.3776
ออกเสียง	-10.3776
สวยๆ	-10.3778
คู่แข่ง	-10.3785
ถึงกับ	-10.379
เสร็จแล้ว	-10.3807
สิ่งของ	-10.381
อิสลาม	-10.381
บุคคลที่	-10.3813
ขนาดไหน	-10.3819
ผ่า	-10.3819
กิโลกรัม	-10.3819
▁2.	-10.3826
หาเสียง	-10.3829
ผู้สูงอายุ	-10.3831
ฮอ	-10.3832
การจังหวัด	-10.3833
ทางหลวง	-10.3838
ดอย	-10.384
อภิ	-10.3844
600	-10.3854
๘	-10.3854
เบา	-10.3857
อยู่บ้าน	-10.3858
การปรับ	-10.3862
ฉบับนี้	-10.3864
แบ	-10.3865
วันแรก	-10.3868
ซัด	-10.3872
ท่าเรือ	-10.3874
สอบปากคํา	-10.3875
หนีไป	-10.3879
เอฟซี	-10.3883
จึงทําให้	-10.3883
ละกัน	-10.3884
โดยทั่วไป	-10.3886
สักพัก	-10.3887
ิน	-10.3887
การนํา	-10.389
สั่น	-10.3891
ประดิษฐ์	-10.3893
พากัน	-10.3894
เสมือน	-10.3897
บวช	-10.3906
ครัวเรือน	-10.3911
end	-10.3912
ที่ชอบ	-10.3912
องศา	-10.3914
มอน	-10.3915
ในราคา	-10.3917
ย่าง	-10.3918
เข้าใจผิด	-10.3919
all	-10.3923
ตุ	-10.3927
มีสิทธิ	-10.3928
ชําระ	-10.3929
แทนที่จะ	-10.3931
ไน	-10.3932
▁ผมจะ	-10.3933
คนรัก	-10.3936
การกําหนด	-10.3936
แจง	-10.3939
เกียร์	-10.3945
รุก	-10.3945
มั่นคง	-10.3948
เเละ	-10.3949
จม	-10.3953
ทําบุญ	-10.3953
ในปีนี้	-10.3955
ประเทศจีน	-10.3956
ประโยค	-10.3961
ไม่เชื่อ	-10.3966
สัญชาติ	-10.3966
ไทยแลนด์	-10.397
นุช	-10.3974
อยากไป	-10.3976
ริก	-10.3976
โหลด	-10.3979
จะอยู่	-10.3987
น้ําแข็ง	-10.3997
โทรมา	-10.3998
มีความหมาย	-10.3998
เสียเวลา	-10.4005
ติดต่อกัน	-10.4007
▁โอเคค่ะ	-10.401
นิดนึง	-10.4011
รุ่นพี่	-10.4011
แล้วแต่	-10.4015
บนถนน	-10.4023
นู	-10.4029
▁เรื่อง	-10.4033
บ้านเรา	-10.4037
ปล้น	-10.4037
ในสิ่งที่	-10.4042
ทิพย์	-10.4043
สามารถทํา	-10.4047
ล่าง	-10.4048
อยู่ที่ไหน	-10.4053
อย่างเต็ม	-10.4053
บ่าย	-10.4054
120	-10.406
เสียบ	-10.4061
แอพ	-10.4072
นี่ก็	-10.4073
แต	-10.4074
ต่างหาก	-10.4074
อาจจะเป็น	-10.4076
ปลื้ม	-10.4076
บรรยาย	-10.4077
หวั่น	-10.4079
น่าน	-10.4082
ที่ถูกต้อง	-10.4082
แร้ว	-10.4088
กระทรวงการ	-10.4093
สลาย	-10.4093
แต่มี	-10.4094
ยังอยู่	-10.41
เรีย	-10.4104
78	-10.4114
อุดม	-10.4116
เคลียร์	-10.4116
ment	-10.4117
3,	-10.412
ca	-10.4123
บ้านพัก	-10.4123
แช	-10.4124
มั๊ย	-10.4124
ไม่คิดว่า	-10.4126
แบ่งเป็น	-10.4127
ซื้อมา	-10.4129
แต่ตอนนี้	-10.4131
องค์ประกอบ	-10.4134
51	-10.4137
ใช้เงิน	-10.414
นักลงทุน	-10.4141
ปริ	-10.4145
ดีค่ะ	-10.4148
ศัตรู	-10.4151
บราซิล	-10.4152
ต่ละหน้าจอ	-10.4153
ที่สาม	-10.4154
ชิ้นส่วน	-10.4154
ย้ายไป	-10.4156
ทุบ	-10.4156
โทรหา	-10.4159
นี้ได้	-10.4161
วิธีที่	-10.4163
ฐานะ	-10.4163
ื่อ	-10.4164
ฝนตก	-10.4167
เข้ารอบ	-10.4171
มุมมอง	-10.4171
ถ้าจะ	-10.4172
▁ไอ้	-10.4179
แสดงผลของแ	-10.4183
ย่อ	-10.4184
ทําไม่ได้	-10.4185
ทําตัว	-10.4188
งด	-10.4188
แน	-10.4191
เกิดขึ้นใน	-10.4201
ไม่ได้เป็น	-10.4205
คุก	-10.4207
สวมใส่	-10.4207
ho	-10.4209
ในขณะนี้	-10.421
ลัก	-10.4211
หวย	-10.4211
ไหล่	-10.4212
เข้มงวด	-10.4212
กันแล้ว	-10.4219
คณะทํางาน	-10.4222
ของจีน	-10.4223
โส	-10.4225
กันและกัน	-10.4227
รถบรรทุก	-10.4231
เลยจ้า	-10.4231
เล่นเกม	-10.4233
พิษณุโลก	-10.4235
มายัง	-10.4235
เป็นนัก	-10.4239
ในความ	-10.4239
แผง	-10.4239
เวลาประมาณ	-10.4241
ตํารวจภูธร	-10.4243
เก๋	-10.4244
บาย	-10.4246
ie	-10.4246
มีคุณภาพ	-10.4247
บ้านเรือน	-10.4253
สาวก	-10.4256
มีด	-10.4263
มีบทบาท	-10.4263
จักรยาน	-10.4265
เขาไม่	-10.4268
มานั่ง	-10.4269
เดน	-10.427
ข่มขืน	-10.4273
การเล่น	-10.4275
สินเชื่อ	-10.4275
เอกลักษณ์	-10.4276
บิล	-10.4277
ok	-10.4277
ของความ	-10.4287
ความทรงจํา	-10.4288
ก็ไม่รู้	-10.4289
มุก	-10.429
เชลซี	-10.4295
พรรคพลัง	-10.4295
โดยไม่ต้อง	-10.4298
ที่ไม่ได้	-10.4299
เข	-10.4304
อิง	-10.4307
ปราบ	-10.4309
พัด	-10.4313
um	-10.4314
กุนซือ	-10.4317
แต่ไม่ได้	-10.4318
ปีหน้า	-10.432
ปชช	-10.4323
รวบ	-10.4323
ในตลาด	-10.4327
เบาๆ	-10.4327
ในกรณีที่	-10.4328
เกิดมา	-10.4332
ธาตุ	-10.4333
ราษฎร์ธานี	-10.4334
กลางวัน	-10.4336
มีรายได้	-10.4337
เตียง	-10.4338
เข็ม	-10.4338
อวด	-10.4343
ผู้รับ	-10.4343
รุ่นใหม่	-10.4344
เกรด	-10.4345
แปลกๆ	-10.4353
สมเด็จ	-10.4355
เซีย	-10.4357
ต้องรอ	-10.4362
มี่	-10.4363
ม่า	-10.4363
ของกลาง	-10.4365
ชัยชนะ	-10.4366
นิวเคลียร์	-10.437
ตะโกน	-10.4375
08	-10.4377
ความลับ	-10.4378
สินะ	-10.4381
นายทุน	-10.4385
สันติ	-10.4393
ทุกปี	-10.4397
งวด	-10.4397
อุดมการณ์	-10.4407
นิคม	-10.4407
ตุ๊กตา	-10.4408
ดูเหมือนว่	-10.4412
พัฒน์	-10.4413
เปอร์	-10.4413
ผู้บาดเจ็บ	-10.4414
เจ้าภาพ	-10.4418
นอกเหนือ	-10.4418
inter	-10.4419
คุณก็	-10.4419
ว่ายน้ํา	-10.442
ของชาว	-10.4422
เบรก	-10.4423
แฟนบอล	-10.4424
บริ	-10.4432
ตอบคําถาม	-10.4433
ใส่ใจ	-10.4437
เทป	-10.4439
รับมือ	-10.4439
ประทับ	-10.444
ความสงบ	-10.444
อ่าว	-10.4442
นักโทษ	-10.4444
อาจทําให้	-10.4446
้อเท็จจริง	-10.4446
กว้างขวาง	-10.4447
con	-10.4447
ทําเป็น	-10.4451
แปด	-10.4451
ซีรีส์	-10.4452
รํา	-10.446
ข้ามชาติ	-10.4464
em	-10.4469
แหลม	-10.4471
si	-10.4471
ค่ํา	-10.4474
เพลงนี้	-10.4474
ไม่ใช่แค่	-10.4477
hi	-10.4479
อบอุ่น	-10.448
tt	-10.4488
▁อยากให้	-10.4493
ล้น	-10.4495
ประกันตัว	-10.4497
are	-10.4497
กลางคืน	-10.4497
ปรองดอง	-10.4498
▁รอ	-10.4499
2.5	-10.4511
เป็นแค่	-10.4512
พับ	-10.4513
ลักษณ์	-10.4513
ลงมือ	-10.4515
แต่งตัว	-10.4518
000	-10.452
กับประชาชน	-10.4525
ฆ่าตัวตาย	-10.453
จะซื้อ	-10.4534
เยียวยา	-10.4535
รวมตัวกัน	-10.454
ไม่รู้จะ	-10.4543
สาระ	-10.4566
▁ผู้	-10.4569
เป็นผู้นํา	-10.4572
หล่ะ	-10.4576
ในวงการ	-10.4577
สต์	-10.4577
ได้มา	-10.4577
นนท์	-10.4577
กว่าจะ	-10.4582
เป็นยังไง	-10.4585
อย่างไม่	-10.4585
มะเร็ง	-10.4587
89	-10.4587
ณัฐ	-10.4591
ลิขสิทธิ์	-10.4592
จัดกิจกรรม	-10.4592
ก็เริ่ม	-10.4603
ครับผม	-10.4607
หมวด	-10.4611
เสียงดัง	-10.4614
▁ต่อมา	-10.4616
cha	-10.4619
เป็นปัญหา	-10.4619
ความนิยม	-10.4621
เฉลิม	-10.4622
ทางออก	-10.4624
หรือการ	-10.4624
gu	-10.4626
ลําดับ	-10.4628
ซ่อน	-10.463
แขวง	-10.4635
ที่วัด	-10.4637
กั้น	-10.4639
คลิก	-10.464
เปิดโอกาส	-10.4642
จะเกิด	-10.4642
ในช่วงเวลา	-10.4643
👍	-10.4644
ยังต้อง	-10.4646
ไปไม่ได้	-10.4648
จะพูด	-10.4654
แดด	-10.4658
สกัด	-10.4658
▁เราก็	-10.466
ภาระ	-10.4668
แซ่บ	-10.4672
ถ้ํา	-10.468
ไบ	-10.4681
การออก	-10.4682
รถกระบะ	-10.4685
บุคลากร	-10.4686
้อ	-10.4687
ฤ	-10.4688
ท่อน	-10.4689
ทั้งประเทศ	-10.4692
เจ้าอาวาส	-10.4692
แผ่นดินไหว	-10.4693
หลังคา	-10.47
นร	-10.4701
สหกรณ์	-10.4701
ว์	-10.4705
บีบ	-10.4709
สิว	-10.471
ต้าน	-10.4714
ไห้	-10.4715
เสื่อม	-10.4718
เราไม่ได้	-10.4721
ค้นพบ	-10.4722
มีอายุ	-10.4725
สปอร์ต	-10.4726
ดึก	-10.4726
ดูแลรักษา	-10.4727
▁เฮ้	-10.4732
88	-10.4733
แผนการ	-10.4735
กมธ	-10.4736
อบต	-10.4742
ที่บริเวณ	-10.4743
หมึก	-10.4744
ผบช	-10.4749
สั่งการให้	-10.4752
คํานวณ	-10.4754
มีสิทธิ์	-10.4756
กรุณา	-10.4757
พลเรือน	-10.4757
os	-10.4757
ศาลปกครอง	-10.4764
กู้ภัย	-10.4766
คาดว่าจะ	-10.4769
น่ะค่ะ	-10.477
เริ่มจาก	-10.4772
เป็ด	-10.4776
ที่ประเทศ	-10.4777
ให้หมด	-10.478
ดั้งเดิม	-10.479
โดยให้	-10.4798
ระดับน้ํา	-10.4802
ห่อ	-10.4807
ยกตัวอย่าง	-10.4808
แซง	-10.4817
รอดู	-10.4818
มานานแล้ว	-10.4819
ไทยรัฐ	-10.4825
พิพากษา	-10.4829
hd	-10.483
ซิ่ง	-10.4832
กับคน	-10.4835
เก็บเงิน	-10.4837
ฝา	-10.4838
พ่อค้า	-10.4838
ได้ถูก	-10.4843
ดูว่า	-10.4847
/3	-10.4847
แสดงให้	-10.4848
ํา	-10.4851
2548	-10.4853
หละ	-10.4864
ว่าด้วยการ	-10.4866
ขนมปัง	-10.4866
😅	-10.4868
ตรัง	-10.4872
ก็ทํา	-10.4879
ระดม	-10.4884
▁เจ้าหน้า	-10.4886
้ว	-10.4888
ทยอย	-10.4889
ได้ถึง	-10.4889
โดยที่	-10.4891
ผง	-10.4903
เล่าว่า	-10.4903
พอจะ	-10.4905
79	-10.4909
มีแค่	-10.491
อย่าลืม	-10.4916
ขอร้อง	-10.4916
ศิษย์	-10.4921
เอื้อ	-10.4933
เมล็ด	-10.4933
ต่อปี	-10.4935
ไหว้	-10.4935
วิว	-10.494
ปรากฏการณ์	-10.494
สภาวะ	-10.4948
พก	-10.4948
คราว	-10.4952
และพัฒนา	-10.4955
โยง	-10.4959
ท่วม	-10.4962
การดูแล	-10.4965
พวกมึง	-10.4968
เชื้อเพลิง	-10.4968
เป็นตัวแทน	-10.4971
กล้ามเนื้อ	-10.4977
.62	-10.4977
ปัง	-10.4979
เกลือ	-10.498
โตโยต้า	-10.4981
▁ผมว่า	-10.4981
มากกก	-10.4981
คุณต้อง	-10.4982
นักเขียน	-10.4987
ไว้ที่	-10.4991
ศึกษาธิการ	-10.4992
มหาศาล	-10.4992
ki	-10.4992
ผู้ก่อเหตุ	-10.4993
ถูกใจ	-10.4996
fi	-10.4996
พระยา	-10.4998
!"	-10.4999
คนแรก	-10.5
และสังคม	-10.5001
เทอร์	-10.5007
ในกรณี	-10.5009
ฝูง	-10.5009
ทบ	-10.5011
ครั้งหนึ่ง	-10.5016
บังคับบัญช	-10.5018
ถ่ายทอด	-10.5022
ก็ถูก	-10.5024
ปีละ	-10.5024
กล่าวอีก	-10.5026
สหภาพ	-10.5029
รถตู้	-10.5029
คนเสื้อแดง	-10.503
min	-10.5036
ร่วง	-10.5039
ยานยนต์	-10.5039
ทศวรรษ	-10.504
หน่อยครับ	-10.5041
▁เพื่อให้	-10.5046
อียิปต์	-10.5049
วิพากษ์	-10.5051
ลาด	-10.5053
ึ	-10.5056
ประทาน	-10.506
2014	-10.5064
ดีครับ	-10.5069
แรกที่	-10.5069
▁เราต้อง	-10.507
ยอน	-10.5073
air	-10.5074
สุโขทัย	-10.5075
กอล์ฟ	-10.5075
นัง	-10.5075
wa	-10.5077
มุทรปราการ	-10.5081
แซม	-10.5087
อย่างเช่น	-10.5087
ตีน	-10.5087
เวิลด์	-10.5089
แก้ม	-10.5089
▁ไม่ต้อง	-10.509
ชัดเจนว่า	-10.5093
1,	-10.5094
รีด	-10.5095
มังกร	-10.5098
อีกว่า	-10.5101
อาสาสมัคร	-10.5103
ru	-10.5105
เทศ	-10.5106
อึน	-10.5108
ค้น	-10.5116
▁คุณจะ	-10.5117
สุก	-10.5118
แหวน	-10.5119
ตีความ	-10.5124
เสี่ย	-10.5125
อดทน	-10.5127
กระบอก	-10.513
จ่อ	-10.5133
im	-10.5134
ไตร	-10.514
จด	-10.5141
he	-10.5144
▁แม้ว่า	-10.5148
แบตเตอรี่	-10.5154
ไฟล์	-10.5157
คุ้มค่า	-10.5159
แม้กระทั่ง	-10.5161
▁ตั้งแต่	-10.5162
แห่งความ	-10.5168
อ่อนแอ	-10.5169
แต่หาก	-10.517
สังหาร	-10.5175
หรอกนะ	-10.5176
คุณต้องการ	-10.5178
อบรม	-10.5189
บทเรียน	-10.5191
ใช้สิทธิ	-10.5191
ประจวบ	-10.5193
ตั้งคําถาม	-10.5195
ทะเลาะกัน	-10.5197
ปุ่ม	-10.5201
รุ่ง	-10.521
ลองดู	-10.5214
ฟื้น	-10.5216
จะกลับมา	-10.5216
วันหนึ่ง	-10.5217
จําได้	-10.5222
โปร่งใส	-10.5225
แผนก	-10.5227
ฟิ	-10.5228
ออฟ	-10.5231
คดีนี้	-10.5234
คัด	-10.5238
ราชบุรี	-10.5239
หรอกครับ	-10.5244
ในกรุง	-10.5244
กาญจนบุรี	-10.5246
ท้อ	-10.5246
ve	-10.5253
จ๋า	-10.5256
ตอบโต้	-10.5256
ปทุมธานี	-10.5257
95	-10.5258
เวน	-10.526
ความถี่	-10.5262
หัวข้อ	-10.5266
แรกของ	-10.5271
แอค	-10.5272
ชนบท	-10.5273
ที่ชัดเจน	-10.5274
เป็นกลุ่ม	-10.5275
สนุกสนาน	-10.5278
ปูน	-10.5279
ลําปาง	-10.5279
ขาดทุน	-10.528
ตรัส	-10.528
$	-10.5298
can	-10.5299
มิส	-10.5299
การป้องกัน	-10.5299
ด้านบน	-10.5304
ุ	-10.531
อล	-10.5311
ซุ	-10.5311
ซอส	-10.5312
ละลาย	-10.5312
ขึ้นอยู่	-10.5313
ส่งให้	-10.5315
ของสังคม	-10.5317
น้อยมาก	-10.5319
ดําน้ํา	-10.5319
เข้าข่าย	-10.5325
เท่ากัน	-10.5326
▁...	-10.5328
กรอง	-10.533
ไม่คิด	-10.5331
ลงเล่น	-10.5335
ห้วย	-10.5336
ในอีก	-10.5341
กิตติ	-10.5343
ความไม่สงบ	-10.5343
เป็นความ	-10.5344
ม่วง	-10.5345
เที่ยวบิน	-10.5348
✌	-10.5351
เฉย	-10.5352
ปาน	-10.5357
อยู่ใกล้	-10.5359
แฉ	-10.536
สับสน	-10.5361
ผ่าตัด	-10.5364
ที่เกิด	-10.5365
เที่ยง	-10.5366
คนดู	-10.5367
เนี้ย	-10.5368
ประเทศที่	-10.5368
การตลาด	-10.5371
ออกหมายจับ	-10.5373
แต่ผม	-10.5374
คู่กับ	-10.5377
้น	-10.5384
ตัก	-10.539
อนาคตใหม่	-10.539
po	-10.5391
ทนทาน	-10.5393
สีเหลือง	-10.5398
มณฑล	-10.5401
บัณฑิต	-10.5402
ในรายการ	-10.5402
เค้าจะ	-10.5403
..."	-10.5407
ใช้วิธี	-10.5409
เพราะเขา	-10.5409
gb	-10.541
กระชับ	-10.541
ศักยภาพ	-10.5411
ตํา	-10.5414
มันไม่ได้	-10.5415
คาน	-10.5416
จัดสรร	-10.5416
ประพฤติ	-10.5417
เปิดใจ	-10.5417
ในภูมิภาค	-10.5417
แค้น	-10.5418
ซุปเปอร์	-10.542
เจตนา	-10.542
นําโดย	-10.5427
สํานักนายก	-10.5427
รธน	-10.5431
วานนี้	-10.5431
ได้หรือไม่	-10.5437
กันเลย	-10.544
ได้บ้าง	-10.5442
และประชาชน	-10.5442
ใจดี	-10.5442
ซับ	-10.5444
เดือนละ	-10.5445
พลเอก	-10.5448
76	-10.5453
เห็นได้ชัด	-10.5459
มโน	-10.5463
อยุธยา	-10.5464
มารดา	-10.5466
มีประโยชน์	-10.5466
สึ	-10.5468
จุฬาลงกรณ์	-10.5471
แบก	-10.5477
เพชรบุรี	-10.5479
mb	-10.5481
งั้นเหรอ	-10.5484
สลับ	-10.5488
ya	-10.5489
ติดคุก	-10.5494
โ	-10.5497
85	-10.5497
หาด	-10.5498
ของชาติ	-10.5498
หลังไมค์	-10.5499
ชง	-10.5506
อาสา	-10.5507
สํานวน	-10.551
▁ลอง	-10.5513
et	-10.5513
เลวร้าย	-10.5515
ร่ม	-10.5515
ฤดูร้อน	-10.5516
เมื่อก่อน	-10.5527
เรายัง	-10.5529
นานๆ	-10.553
มื้อ	-10.5532
ป้อม	-10.5532
ลิ้น	-10.5535
การขยายตัว	-10.5535
มอบหมายให้	-10.5541
ที่มาจาก	-10.5543
พลอดุลยเดช	-10.5547
อย	-10.5547
du	-10.5547
ของเด็ก	-10.555
ไว้แล้ว	-10.5553
มีความรู้	-10.5557
คอล	-10.5559
นาทีที่	-10.5559
เสิร์ฟ	-10.5561
จะเห็น	-10.5563
ทุกเรื่อง	-10.5565
เขาเป็น	-10.5567
กัญชา	-10.5567
ผู้ใด	-10.5568
ไม่ผิด	-10.5568
เวล	-10.5568
พระสงฆ์	-10.5571
9.	-10.5572
เป็นเพราะ	-10.5576
เคร	-10.5578
สมัยใหม่	-10.5578
ต่ําสุด	-10.558
ก๋วยเตี๋ยว	-10.5582
เรื่องความ	-10.5583
มาพร้อมกับ	-10.5584
แล้วเสร็จ	-10.5586
แอนด์	-10.5591
รัส	-10.5593
อิหร่าน	-10.5596
ทวิต	-10.5597
ในขณะ	-10.5604
แม่ค้า	-10.561
คัง	-10.5616
ที่กําหนด	-10.5619
เพิ่มอีก	-10.5621
เปรม	-10.5621
แฟนๆ	-10.5625
แผนที่	-10.5627
ไปเรียน	-10.5633
car	-10.5634
ก็ยังไม่	-10.5636
ว่าคุณ	-10.5636
หาดใหญ่	-10.5636
ถ้อยคํา	-10.5637
ัม	-10.5638
ปลัด	-10.5638
งานวิจัย	-10.5638
son	-10.564
ข้างต้น	-10.564
เด้ง	-10.5641
จากแบรนด์	-10.5643
เป็นเจ้า	-10.5645
อยู่นะ	-10.5645
เป็นต้นไป	-10.5646
ขายของ	-10.5655
เสร็จสิ้น	-10.5656
bi	-10.5658
จิร	-10.5659
เปรี้ยว	-10.5661
ใช้เป็น	-10.5665
ได้ทํา	-10.5667
มิใช่	-10.5667
ย้อน	-10.5671
ไม่รับ	-10.5672
มือสอง	-10.5673
พยายามจะ	-10.5673
1.5	-10.5674
การบิน	-10.5675
ภูมิใจ	-10.5683
รูปร่าง	-10.5685
เราชอบ	-10.5694
มีชื่อ	-10.5694
เป่า	-10.5695
ภาคกลาง	-10.5696
จินตนาการ	-10.5697
เต่า	-10.5699
บ่อยครั้ง	-10.5703
วอ	-10.5704
ทิ้งไว้	-10.5711
ine	-10.5712
ck	-10.5715
นิวยอร์ก	-10.5717
ใหญ่ที่สุด	-10.5718
ขวาง	-10.5718
ไผ่	-10.5722
เครดิต	-10.5722
พรรณ	-10.5725
ก้น	-10.5725
จะบอกว่า	-10.5729
บังคับให้	-10.5733
จร้า	-10.5734
▁ขณะนี้	-10.5736
อ้างอิง	-10.574
เคลื่อน	-10.5748
ดิบ	-10.575
แท็ก	-10.5754
นั้นก็	-10.5756
เหรอคะ	-10.5757
คณะกรรมาธิ	-10.5758
พูดคุยกับ	-10.5758
นํามาใช้	-10.5759
รักษาความส	-10.576
เนาะ	-10.5762
เอน	-10.5765
112	-10.5766
ทางกฎหมาย	-10.5766
that	-10.5767
แต่ก็ยัง	-10.5769
พร้อมที่จะ	-10.577
ความฝัน	-10.577
ร่วมมือกับ	-10.577
สาเหตุที่	-10.577
จุ	-10.5772
แสบ	-10.5772
มาดริด	-10.5774
นครปฐม	-10.5776
ผมไม่	-10.5777
▁3.	-10.5779
อับ	-10.578
ที่มาของ	-10.5788
เนื้อผ้า	-10.5788
เซ็นทรัล	-10.5795
สระ	-10.5795
กล้วย	-10.5799
ฉีด	-10.5801
แทนที่	-10.5802
ครั้งเดียว	-10.5804
อยู่ไหน	-10.5804
นั้นมี	-10.5805
คุณภาพดี	-10.5808
เสพ	-10.5809
ถาด	-10.5812
เห็ด	-10.5813
กองทัพบก	-10.5816
กรัม	-10.5817
กําหนดไว้	-10.5817
บัน	-10.5818
ห้องพัก	-10.582
เป็นฝ่าย	-10.582
อีกฝ่าย	-10.5821
วิทย์	-10.5821
ที่รัฐ	-10.5823
ชุมพร	-10.5824
สามัคคี	-10.5826
ไขมัน	-10.5827
จากประเทศ	-10.5827
ชาน	-10.5828
แตะ	-10.5828
สําคัญที่	-10.5836
ฎ	-10.5838
ดิจิทัล	-10.5843
ชีวิตของ	-10.5843
เกินกว่า	-10.5843
เอ่อ	-10.5843
ทรมาน	-10.5845
ควัน	-10.5848
แร่	-10.5848
ท่าทาง	-10.585
ซื้อของ	-10.5855
นี้คือ	-10.5855
สํานึก	-10.5857
ถูกยิง	-10.5858
world	-10.5858
เกิดปัญหา	-10.586
อิเล็กทรอน	-10.5861
มากครับ	-10.5862
คมนาคม	-10.5865
ปราศจาก	-10.5867
การตรวจ	-10.587
โครง	-10.5873
พระราชวัง	-10.5875
ผมได้	-10.5876
ถ้าหาก	-10.5884
ข้างใน	-10.5884
ในบริเวณ	-10.5886
อิจฉา	-10.5889
เป็นเงิน	-10.5891
net	-10.5892
หมัด	-10.5894
▁พล	-10.5894
ci	-10.5895
เพล	-10.5903
ใต้ดิน	-10.5904
cc	-10.5904
ps	-10.5905
ไตรมาส	-10.5908
ซีเรีย	-10.5911
สํา	-10.5912
ขอบคุณค่ะ	-10.5913
fc	-10.5914
อํานวยความ	-10.5914
แนวโน้ม	-10.5919
ในหนังสือ	-10.5925
2,000	-10.5926
กับเธอ	-10.5926
ต่างด้าว	-10.5928
ทีนี้	-10.593
อยู่เสมอ	-10.5931
รอยยิ้ม	-10.5931
ได้รับแจ้ง	-10.5934
จึงไม่	-10.5937
สุร	-10.5938
พระคัมภีร์	-10.5939
รื้อ	-10.5941
เจ้	-10.5941
สร้างขึ้น	-10.5942
ไม่เจอ	-10.5944
ในหลาย	-10.5946
เช็ก	-10.5947
ได้สําเร็จ	-10.5947
จะต้องมี	-10.5953
บรร	-10.5958
เกีย	-10.5959
มอเตอร์	-10.596
ประเด็นที่	-10.5961
จริยธรรม	-10.5962
ถ่ายทอดสด	-10.5963
ตุลาการ	-10.5964
3-4	-10.5965
ว่าใคร	-10.5966
เก้า	-10.5968
รถเมล์	-10.5968
รับผลกระทบ	-10.5975
ดอง	-10.5975
ศาลฎีกา	-10.5979
ไปทั่ว	-10.5985
่น	-10.5985
ผ่านการ	-10.5986
มรดก	-10.5986
ขั้นต่ํา	-10.5986
ไปเป็น	-10.5987
สบายๆ	-10.5993
เถิด	-10.6002
อาจจะมี	-10.6003
ก็บอกว่า	-10.6003
ไว้ว่า	-10.6006
เคมี	-10.6006
กับพวก	-10.6008
หลวงพ่อ	-10.6011
ได้แค่	-10.6016
เคลื่อนที่	-10.6018
รายนี้	-10.6018
แป	-10.6019
น่ะครับ	-10.602
ถ่ายภาพ	-10.602
ไม่ได้มี	-10.6022
ควย	-10.6039
ประหลาด	-10.6041
ตอนบน	-10.6041
ติก	-10.6042
เศรษฐ	-10.6043
ท็อป	-10.6044
จะเปลี่ยน	-10.6046
เยอะแยะ	-10.6047
ลัทธิ	-10.6049
ชก	-10.6049
นิด	-10.605
จะหา	-10.6051
ป่าไม้	-10.6055
แล้วยัง	-10.6056
ทันสมัย	-10.6058
เต้	-10.6059
ทําให้ฉัน	-10.6062
รุม	-10.6064
นัน	-10.6073
สลิ่ม	-10.6074
เหนียว	-10.6074
รึยัง	-10.6077
ทําธุรกิจ	-10.6077
เผ็ด	-10.6077
สัส	-10.6079
นักธุรกิจ	-10.6081
ถ้าไม่มี	-10.6087
การประกาศ	-10.6087
บัตรเครดิต	-10.6089
คนไหน	-10.609
๐	-10.6092
ยอ	-10.6092
ในไตรมาส	-10.6096
ภาพลักษณ์	-10.6097
แตกต่างจาก	-10.6098
เอ็กซ์	-10.6098
ไปรับ	-10.6102
และสามารถ	-10.6102
ทีหลัง	-10.6104
พบศพ	-10.6105
au	-10.6106
shi	-10.6107
ยุน	-10.6108
ความมั่นใจ	-10.6108
2000	-10.611
แบบไม่	-10.6111
เกร	-10.6111
ได้ด้วย	-10.6113
ยํา	-10.6113
ริส	-10.6115
นิสิต	-10.612
บันได	-10.6122
มั่น	-10.6122
ที่อาจ	-10.6126
6.	-10.6128
จ่ายค่า	-10.613
เจ๋ง	-10.6133
ฝ	-10.6133
ไข้	-10.6133
รักษาการ	-10.6135
เป็นคนดี	-10.6142
รวมถึงการ	-10.6142
ทีละ	-10.6144
จอดรถ	-10.6145
จว	-10.6146
ผู้ได้รับ	-10.6147
ลงสนาม	-10.6153
เป้น	-10.6154
ปลายทาง	-10.6154
ลงใน	-10.6156
หลายแห่ง	-10.6159
จังเลย	-10.6164
**	-10.6166
98	-10.6167
พวกเขาจะ	-10.6169
ในศึก	-10.6173
jo	-10.6175
สภาพอากาศ	-10.6176
ในแง่	-10.6178
ทรัมป์	-10.6185
ท้าทาย	-10.6189
ก็ให้	-10.6192
กลม	-10.6192
สั้นๆ	-10.6193
คุณสามารถ	-10.6193
แบต	-10.6195
ไม่น่าจะ	-10.6195
??	-10.6198
ชุดสืบสวน	-10.6199
มันต้อง	-10.6203
ก็เหมือน	-10.6203
ยากลําบาก	-10.6208
เกิดจากการ	-10.6209
รัด	-10.621
ไม่ทํา	-10.6213
จัน	-10.6216
รักกัน	-10.6218
ฤดู	-10.6218
นนทบุรี	-10.6218
กาก	-10.6231
ชีพ	-10.6232
▁รวมทั้ง	-10.6233
เปลือก	-10.6237
ที่เรียกว่	-10.6238
การสํารวจ	-10.6239
มลพิษ	-10.624
นายอําเภอ	-10.624
ฟังเพลง	-10.6241
สูบ	-10.6242
ต่อให้	-10.6242
นะจ๊ะ	-10.6244
5,000	-10.6245
ไม่อยู่	-10.6248
อยู่ภายใต้	-10.625
โบสถ์	-10.6251
พิพิธภัณฑ์	-10.6254
ทําให้เขา	-10.6255
เมตตา	-10.6255
เท็จ	-10.6259
ต้องมีการ	-10.6262
ยืดหยุ่น	-10.6263
ของแต่ละ	-10.6265
ฌ	-10.6267
youtube	-10.6269
พัทยา	-10.6273
ระงับ	-10.6277
▁ไม่ว่าจะ	-10.6278
ผู้ชม	-10.6278
ปรัชญา	-10.6281
รังสิต	-10.6281
ทุ	-10.6288
ลอ	-10.6293
หนึ่งของ	-10.6295
ชัดๆ	-10.6298
นําส่ง	-10.6304
โมโห	-10.6305
เป้	-10.6307
จัก	-10.6307
อีกรอบ	-10.6308
ด้านใน	-10.6311
หาทาง	-10.6314
06	-10.6318
ก็เพราะ	-10.6323
เขามี	-10.6328
ทักษะ	-10.6328
เหมาะสมกับ	-10.6329
ผอม	-10.6332
เลี้ยงดู	-10.6333
ที่สุดใน	-10.6333
ปอด	-10.6334
วิเศษ	-10.6335
project	-10.6336
▁ทํา	-10.6337
ฟาร์ม	-10.6337
ให้เห็นว่า	-10.6339
พวกเค้า	-10.634
|	-10.6341
จะไม่มี	-10.6347
ไมค์	-10.6348
สีน้ําเงิน	-10.6348
พาไป	-10.6352
ผู้พิพากษา	-10.6353
ฉันต้องการ	-10.6362
รึป่าว	-10.6364
ตอ	-10.6365
ลงตัว	-10.6368
ดูหนัง	-10.6368
ไม่พบ	-10.6371
พระนาง	-10.6379
มุ่งมั่น	-10.6379
รายงานข่าว	-10.6387
ก็จะมี	-10.639
ไว้ให้	-10.6394
กัปตัน	-10.6395
เม้น	-10.6396
เวย์	-10.6396
โรม	-10.6398
▁สาธุ	-10.64
▁นอกจาก	-10.6402
ตอบสนอง	-10.6402
แทบจะ	-10.6403
อย่าให้	-10.6415
จะกลายเป็น	-10.6418
มอบให้	-10.6418
ไลฟ์	-10.642
ปชป	-10.6421
บาทต่อ	-10.6422
ถึงได้	-10.6422
4,	-10.6426
ที่อื่น	-10.6428
size	-10.6429
งบแห่งชาติ	-10.6431
สีชมพู	-10.6432
เป็นเหตุ	-10.6436
ให้เลือก	-10.6437
คนเรา	-10.6437
ด้านล่าง	-10.6437
ให้ลูก	-10.644
ไพร	-10.6444
โดยไม่ได้	-10.6447
หมาก	-10.6448
ด้วยนะครับ	-10.6448
ในส่วน	-10.6449
2547	-10.6449
กปปส	-10.6449
ล็อค	-10.645
5%	-10.645
รับใช้	-10.6451
บิดา	-10.6452
พึง	-10.6452
แซ	-10.6452
จําลอง	-10.6453
รําคาญ	-10.6457
เลี่ยง	-10.646
เมืองหลวง	-10.646
เขาไป	-10.6461
โว้ย	-10.6461
header	-10.6466
เพื่อจะ	-10.647
ในเชิง	-10.6472
1-0	-10.6472
ทํานอง	-10.6473
ได้ทําการ	-10.6473
จักรวรรดิ	-10.6474
แต่ไม่มี	-10.6475
หาเงิน	-10.6477
ทอม	-10.648
ir	-10.649
ไค	-10.6491
เรือง	-10.6495
โพล	-10.6496
อิส	-10.6497
สรรหา	-10.6498
about	-10.6502
ดูเหมือนจะ	-10.6506
opject	-10.6508
ขอบเขต	-10.651
สะโพก	-10.6512
โลหะ	-10.6514
ติน	-10.6515
super	-10.6516
เซนต์	-10.6519
เคยเห็น	-10.6524
แรงบันดาลใ	-10.6529
ไปจาก	-10.653
นิยาม	-10.6535
ต่อรอง	-10.6536
เมียนมา	-10.6541
ลาออกจาก	-10.6542
ประมง	-10.6543
เอ่ย	-10.6547
ที่พวกเขา	-10.6549
คล้ายกับ	-10.6552
op	-10.6553
บรรลุ	-10.6556
800	-10.6561
หมดเลย	-10.6565
เยือน	-10.6566
.61	-10.6566
แต่การ	-10.6567
ความตาย	-10.6567
ป้องกันการ	-10.6567
ไม่ต่ํากว่	-10.6569
เทียม	-10.657
ชนชั้น	-10.6571
นวด	-10.6574
พี่ๆ	-10.6575
เง	-10.6575
สุ่ม	-10.6577
เจ้านาย	-10.6579
คบกัน	-10.6583
wi	-10.6585
ผู้ว่าฯ	-10.6586
ฟ้องร้อง	-10.6589
ได้เข้า	-10.6595
สหราช	-10.6595
รั้ว	-10.6599
ช่วงที่	-10.6601
ถั่ว	-10.6602
licence	-10.6603
ปัญหาที่	-10.6604
iphone	-10.6604
ประชาชนที่	-10.6609
.60	-10.6609
ในข้อหา	-10.661
ซอน	-10.6613
หรู	-10.6614
แคน	-10.6615
br	-10.6617
มั้ยครับ	-10.6618
ศรีสะเกษ	-10.662
▁อันนี้	-10.6622
อันดับที่	-10.6626
ทาส	-10.6628
เล็ง	-10.663
โรมัน	-10.6633
เปิดให้	-10.6634
อุป	-10.6637
เป็นลูก	-10.6637
เชือก	-10.6639
แว	-10.664
72	-10.6643
พริก	-10.6645
สารเคมี	-10.6646
กรรมาธิการ	-10.6647
ทัศนคติ	-10.6648
ที่สนาม	-10.6653
หะ	-10.6655
แสวงหา	-10.6656
เดล	-10.6656
มาพร้อม	-10.6656
▁เพราะว่า	-10.6657
▁กุ	-10.6657
อภิปราย	-10.666
เชียว	-10.6666
อิทธิพล	-10.6668
ยัด	-10.6669
▁คิดถึง	-10.6674
สาหัส	-10.6676
แต่ยังไม่	-10.6677
เซนติเมตร	-10.6683
ได้ครับ	-10.6685
เป็นแหล่ง	-10.6691
และได้รับ	-10.6691
ฮยอน	-10.6704
ณรงค์	-10.6707
ผู้บังคับ	-10.6708
ก็บอก	-10.6709
ในนาม	-10.6714
tu	-10.6715
see	-10.6716
ต้องให้	-10.6717
นวล	-10.6722
ไข	-10.6722
จ้อง	-10.6725
เลอ	-10.6725
การทดสอบ	-10.6725
ออกไปจาก	-10.6728
2)	-10.6732
วัตถุดิบ	-10.6732
การวิจัย	-10.6734
mu	-10.6737
ขัง	-10.6741
อ้อม	-10.6741
เข้ามาใน	-10.6743
ที่พบ	-10.6743
จนกว่าจะ	-10.6752
ย้อนหลัง	-10.6753
จนได้	-10.6759
น่าจะมี	-10.676
พร้อมส่ง	-10.6761
แคนาดา	-10.6763
ขอบคุณมาก	-10.6763
จูบ	-10.6764
กับผู้	-10.6767
your	-10.6771
เหรอครับ	-10.6772
ใย	-10.6775
นิดๆ	-10.6775
เอช	-10.6777
ยกย่อง	-10.6778
รับสารภาพ	-10.6783
ดะ	-10.6786
ทางศาสนา	-10.6786
ชายหาด	-10.6789
ใช้ในการ	-10.6789
เราเลย	-10.6789
หลังจากนี้	-10.6792
ทางร้าน	-10.6793
อาวุโส	-10.6794
สักหน่อย	-10.6798
ชมรม	-10.6798
true	-10.6807
ไปใช้	-10.6807
เฉ	-10.6808
เพียบ	-10.681
อยากรู้ว่า	-10.6812
กับใคร	-10.6814
โดยเร็ว	-10.6819
เลยนะคะ	-10.6822
ขีด	-10.6823
เรื่องอะไร	-10.6828
ของพระยะ	-10.6829
ในหมู่บ้าน	-10.6834
สีฟ้า	-10.6834
ขับไล่	-10.6837
รองประธาน	-10.6837
ธิดา	-10.6838
กระบะ	-10.684
มีแฟน	-10.6841
โผล่	-10.6842
ไม่ติด	-10.6844
สเตอร์	-10.6845
ฮอนด้า	-10.6848
วิล	-10.6849
):	-10.685
สมัยนี้	-10.6851
วย	-10.6852
ของพี่	-10.6857
การ์	-10.6857
เป็นนายก	-10.6861
ทํากิจกรรม	-10.6862
พรี	-10.6864
ไว้ใจ	-10.6867
ทําใจ	-10.6867
แนบ	-10.6868
ฮู	-10.6871
สู้ๆ	-10.6871
เกาหลีเหนื	-10.6877
ขยายผล	-10.6877
เชฟ	-10.6881
อิรัก	-10.6883
คึกคัก	-10.6884
ล้ํา	-10.6885
ฟิล์ม	-10.6887
ตอบแทน	-10.6896
สืบทอด	-10.6898
ยังสามารถ	-10.6901
รับรางวัล	-10.6906
ก็อาจจะ	-10.6906
ร่วมงาน	-10.6907
หลายปี	-10.6907
จากความ	-10.6911
เวช	-10.6911
วงษ์	-10.6913
นามสกุล	-10.6913
รก	-10.6914
ของชาวบ้าน	-10.6915
แปะ	-10.6915
▁ดูเหมือน	-10.6918
ความจํา	-10.6918
หลักของ	-10.6918
คงเป็น	-10.6919
▁รัก	-10.692
ไม่เหมาะสม	-10.6924
เขายัง	-10.6942
ในหลวง	-10.6944
สวัสดีครับ	-10.6945
มาโดยตลอด	-10.6945
กับผม	-10.6946
ตีพิมพ์	-10.6948
ผมไม่ได้	-10.6949
ไม่แน่ใจ	-10.6954
สลัด	-10.6958
1000	-10.6958
อมมิวนิสต์	-10.6958
นายกสมาคม	-10.6959
สห	-10.6961
ที่เพิ่ง	-10.6962
สูงมาก	-10.6963
ของศาล	-10.6966
ดีแล้ว	-10.6966
โฉม	-10.6968
แถมยัง	-10.6976
มั่ว	-10.6977
แนวทางการ	-10.6978
ซึ่งทําให้	-10.6979
เปิดประตู	-10.6982
ซึ	-10.6983
เมื่อไร	-10.6983
นําตัว	-10.6984
ถึงแม้	-10.6986
กับกลุ่ม	-10.6989
่ะ	-10.699
🥰	-10.6998
พรรษา	-10.6999
และใช้	-10.7001
เปาโล	-10.7006
ต่อวัน	-10.7007
ดังที่	-10.7007
ทุกที	-10.7009
2020	-10.7011
ประมวล	-10.7012
เข้าพบ	-10.7012
รัฐออนไลน์	-10.7013
ความสูง	-10.7014
หันไป	-10.7019
เป็นโรค	-10.7022
เหม	-10.7024
คิดอะไร	-10.7031
คอร์	-10.7034
ผนัง	-10.7035
700	-10.7037
บัก	-10.7041
ซื้อขาย	-10.7043
หนทาง	-10.7044
แท่ง	-10.7045
สิ่งที่เรา	-10.7047
สมศักดิ์	-10.7048
ออกนอก	-10.7048
แสดงออก	-10.7055
ราชดําเนิน	-10.7056
ers	-10.7056
บางแห่ง	-10.7056
สั่งการ	-10.7057
แกง	-10.7057
การให้	-10.7062
จร	-10.7063
งดงาม	-10.7064
มล	-10.7065
ศุภ	-10.7065
เนื่องใน	-10.7069
ยินเสียง	-10.7071
เงินกู้	-10.7072
หน้าต่าง	-10.7074
.6	-10.7077
ตับ	-10.7079
ที่เข้ามา	-10.7082
สักอย่าง	-10.7082
ขอรับ	-10.7083
ใหญ่ๆ	-10.7084
หรือไม่ก็	-10.7085
อุดหนุน	-10.7087
ซับซ้อน	-10.709
red	-10.7093
ได้ผล	-10.7094
ชอบมาก	-10.7095
ในตําแหน่ง	-10.7098
มัย	-10.71
แล้วค่อย	-10.7106
2012	-10.7107
ยังคงมี	-10.7109
สําหรับคน	-10.7111
ฟุตบอลโลก	-10.7122
เป็นพระ	-10.7122
อุดมศึกษา	-10.7125
กลุ่มผู้	-10.7132
ต่างจาก	-10.7132
แค่นั้น	-10.7136
กวาด	-10.7138
สูงถึง	-10.7141
พระราชพิธี	-10.7141
หรือไง	-10.7142
2013	-10.7142
กบ	-10.7143
เฉลิมพระ	-10.7143
ธาร	-10.7145
ห่า	-10.7145
วิด	-10.7146
ลูกน้อง	-10.7147
เจอร์	-10.7153
กระโปรง	-10.7154
บล็อก	-10.7156
วิถีชีวิต	-10.7157
บบ	-10.7159
มหาราช	-10.7162
การจับกุม	-10.7162
และทําให้	-10.7164
เทว	-10.7166
เร็วที่สุด	-10.7169
แคบ	-10.7171
ny	-10.7172
ยม	-10.7175
ครบถ้วน	-10.7177
ค้าบ	-10.7182
ภาพถ่าย	-10.7183
อํานาจของ	-10.7185
user	-10.7186
สุรินทร์	-10.7188
ป๋า	-10.7192
นี้ก็	-10.7194
ฉีก	-10.7196
01	-10.7196
ri	-10.7197
ตําหนิ	-10.7197
บรา	-10.7197
ทําอาหาร	-10.7198
เดย์	-10.7199
ติดกับ	-10.7201
2-0	-10.7205
แต่งหน้า	-10.7206
พอเพียง	-10.7208
ต่อไปนี้	-10.7211
ไอจี	-10.7212
เสน่ห์	-10.7214
ทางเข้า	-10.7218
ก้า	-10.7222
นิติ	-10.7226
โตะ	-10.723
ตอบรับ	-10.7232
คิง	-10.7234
ข่มขู่	-10.7236
▁ใช้	-10.7238
เป็นพวก	-10.7238
ปัน	-10.7238
กํานัน	-10.7239
นอกระบบ	-10.724
ช่วงเช้า	-10.7245
มาจากไหน	-10.7246
ปากกา	-10.7247
ดิจิตอล	-10.7247
▁ฉันไม่	-10.7259
ก็เอา	-10.7259
ยี	-10.726
ปราศรัย	-10.726
สหพันธ์	-10.7263
สุวรรณภูมิ	-10.7264
เฟอร์	-10.7266
ทําไมถึง	-10.7267
ดูจาก	-10.727
part	-10.7271
ที่จะทํา	-10.7271
ur	-10.7273
ดาวเทียม	-10.7274
อวกาศ	-10.7276
การจัดตั้ง	-10.7278
ชิงชนะเลิศ	-10.7278
▁ผมก็	-10.7278
จึงมี	-10.7282
บ้านหลัง	-10.7283
เมย์	-10.7286
ยอดขาย	-10.7286
ร่างกฎหมาย	-10.7287
ภพ	-10.7288
เขาไม่ได้	-10.7295
ให้รัฐบาล	-10.7303
เดรส	-10.7304
เป็นของ	-10.7308
โชติ	-10.7314
ัญ	-10.7318
ขยัน	-10.7321
กันหมด	-10.7324
แร	-10.7326
ตัวตน	-10.7327
ความจุ	-10.7327
หัด	-10.7331
นครสวรรค์	-10.7336
ค้ามนุษย์	-10.7337
ซึม	-10.734
ในหมู่	-10.7341
โตเกียว	-10.7344
ไม่ถูกต้อง	-10.7345
มีข่าว	-10.7349
โดยสาร	-10.7356
เป็นจุด	-10.7357
กันบ้าง	-10.7357
ตุรกี	-10.7358
นิ่ม	-10.736
กัล	-10.7361
จํานําข้าว	-10.7362
74	-10.7362
ลอก	-10.7362
แน่ใจว่า	-10.7362
แขวน	-10.7366
อึดอัด	-10.7368
มาร	-10.7368
ได้เงิน	-10.737
มาย	-10.737
กองหน้า	-10.7376
คราบ	-10.7377
พิม	-10.738
ตังค์	-10.738
อยากดู	-10.7383
ร่อง	-10.7384
สมบูรณ์แบบ	-10.7385
เสาร์	-10.7385
วอล	-10.7388
ver	-10.7389
ต่อสู้กับ	-10.739
ออกเป็น	-10.7398
หนักมาก	-10.7398
มาเล่น	-10.7399
ku	-10.7404
nu	-10.7407
เรื่องนั้น	-10.741
ไกร	-10.7413
pu	-10.7416
ระบอบป	-10.7416
text	-10.7417
ตกต่ํา	-10.7418
หมู่ที่	-10.7418
สมาชิกสภาผ	-10.7418
พูดกับ	-10.7421
ฟอร์ด	-10.7421
มุ่งหน้า	-10.7424
ji	-10.7428
ton	-10.7429
แจ้งให้	-10.743
กับพี่	-10.743
กรุ๊ป	-10.7437
ฝ่า	-10.7441
ลําตัว	-10.7441
ทางการเงิน	-10.7442
ส่วนราชการ	-10.7445
ไปอยู่	-10.7446
หง	-10.7446
ปุ	-10.7447
ทําจาก	-10.745
สัง	-10.7451
แท้ๆ	-10.7451
พัทลุง	-10.7451
สําหรับผู้	-10.7451
อนุญาต	-10.7454
าสตราจารย์	-10.7454
เหยียบ	-10.7455
gi	-10.7458
หงส์	-10.7461
แผ่	-10.7462
แพ็ค	-10.7464
กล่าวหา	-10.7465
ภาคอีสาน	-10.7465
ศักดิ์ศรี	-10.7467
โน้ต	-10.7468
ฝนตกหนัก	-10.747
ไม่ใช้	-10.7473
▁นั่นคือ	-10.7474
สุพรรณบุรี	-10.7474
นั้นจะ	-10.7475
บังเอิญ	-10.7475
fe	-10.7483
หมวก	-10.7488
87	-10.749
ตายแล้ว	-10.7491
50,000	-10.7493
ศาลอาญา	-10.7493
ซูเปอร์	-10.7496
bu	-10.7501
มหาลัย	-10.7502
สุดท้ายของ	-10.7504
รศ	-10.7504
เพื่อหา	-10.751
ก็ดู	-10.7513
การแก้ปัญห	-10.7517
ทําให้คุณ	-10.7519
lu	-10.7519
app	-10.7522
รับเงิน	-10.7523
แด่	-10.7523
ที่ศูนย์	-10.7524
▁แต่ถ้า	-10.7527
พิซซ่า	-10.7527
พันล้าน	-10.7528
คอนโด	-10.7529
ก็รู้	-10.753
การฝึก	-10.7534
ฉันคิดว่า	-10.7545
เสือก	-10.7546
ปรุง	-10.7546
ตรงที่	-10.7547
แสนบาท	-10.7549
โฟ	-10.7552
หลอกลวง	-10.7553
หงส์แดง	-10.7553
สามัญ	-10.7554
▁น่ารัก	-10.7554
ai	-10.7557
จับมือ	-10.7558
.59	-10.7558
รุ่นนี้	-10.7561
อยากทํา	-10.7564
โห	-10.7565
พยานพระยะ	-10.7567
สุภาพ	-10.7571
ศิลป	-10.7573
2540	-10.7573
10.00	-10.758
2-1	-10.758
สหภาพแรงงา	-10.7585
dis	-10.7588
เวท	-10.7591
เบีย	-10.7591
คนใน	-10.7593
านนท์	-10.7595
ทางช่อง	-10.7595
rt	-10.7596
ม่	-10.7598
บิดเบือน	-10.7599
กระทําการ	-10.76
84	-10.7603
ัช	-10.7603
ดาร์	-10.7604
ไฟไหม้	-10.7606
ity	-10.7606
นักบิน	-10.761
นิดเดียว	-10.7611
เค็ม	-10.7611
ไวรัส	-10.7612
การเกิด	-10.7613
หน้าอก	-10.7615
มะพร้าว	-10.7617
็จพระปรมิน	-10.7621
เราควร	-10.7623
ปฏิกิริยา	-10.7623
ให้ไป	-10.7625
ด้านข้าง	-10.7632
ap	-10.7635
900	-10.7635
พรม	-10.7635
ไม่แน่ใจว่	-10.7637
จ่า	-10.7641
การเขียน	-10.7641
เบิก	-10.7643
[2]	-10.7643
วอลเลย์บอล	-10.7644
86	-10.7647
ทั้งสองคน	-10.7648
นายทหาร	-10.7649
pp	-10.7649
รายจ่าย	-10.7651
เลิฟ	-10.7652
การโจมตี	-10.7652
การเลือก	-10.7653
น่าสงสาร	-10.7655
เว้น	-10.7659
สิ่งสําคัญ	-10.7662
มวยไทย	-10.7663
เทน	-10.7666
นอกจากจะ	-10.7666
คห	-10.7667
ในภาค	-10.7668
จับได้	-10.767
เสริมสร้าง	-10.7675
เพื่อช่วย	-10.7679
กํากับดูแล	-10.768
ณี	-10.7682
ชมพู	-10.7685
นิทรรศการ	-10.7686
▁ผมคิดว่า	-10.7686
เสียสละ	-10.7686
วันอังคาร	-10.7693
ทํางานได้	-10.7696
ในการทํา	-10.7698
แต่ก็ไม่	-10.77
ไปกิน	-10.7701
ค่าบริการ	-10.7706
73	-10.7708
ลีย์	-10.7709
ขึ้นเป็น	-10.7709
พิกัด	-10.7713
วดี	-10.7713
ของระบบ	-10.7714
รับฟังความ	-10.7715
ได้ค่ะ	-10.7715
มีอิทธิพล	-10.7718
ซอก	-10.772
โดด	-10.7722
สมัยก่อน	-10.7722
ไลฟ์สไตล์	-10.7724
>>	-10.7725
ชาวจีน	-10.7727
star	-10.7727
เลอร์	-10.7733
▁เพื่อน	-10.7735
ใกล้ๆ	-10.7738
ข้างทาง	-10.7738
รับอนุญาต	-10.7742
ไม่เคยมี	-10.7747
เพื่อป	-10.7749
การเป็น	-10.775
รังสี	-10.7751
บทบัญญัติ	-10.7751
บาล	-10.7756
ak	-10.7756
ได้ใช้	-10.7757
จัดขึ้น	-10.776
▁แล้วก็	-10.7762
หน่อยค่ะ	-10.7763
นิส	-10.7765
ดูถูก	-10.7766
ลือ	-10.7767
คุณค่า	-10.777
shop	-10.7771
อีกทั้งยัง	-10.7771
อยู่เลย	-10.7773
▁ช่วย	-10.7773
ออกจากบ้าน	-10.7774
ข้อมูลที่	-10.7775
เจตนารมณ์	-10.7777
คู่นี้	-10.7777
ครั้งใหญ่	-10.7778
บิด	-10.7778
แส	-10.7779
ตามเวลา	-10.7779
โหมด	-10.7779
บุหรี่	-10.7782
จะเข้า	-10.7782
นิรโทษกรรม	-10.7783
นั้นๆ	-10.7784
top	-10.7786
ประหาร	-10.7786
ดีงาม	-10.7787
ซ่อมแซม	-10.7788
เป็นระบบ	-10.7788
จากเดิม	-10.7789
พบว่ามี	-10.7797
พะ	-10.7798
รั	-10.7799
หนี้สิน	-10.7799
กิ่ง	-10.7801
mar	-10.7805
data	-10.7809
ส่วนบุคคล	-10.7816
รับสมัคร	-10.7818
ส่วนเรื่อง	-10.7818
แท็กซี่	-10.7827
ประพันธ์	-10.7833
ปุ๋ย	-10.7835
ข้อสังเกต	-10.7836
ภาพรวม	-10.7841
vo	-10.7842
สัมปทาน	-10.7844
▁ทุกคน	-10.7847
▁อีกทั้ง	-10.7849
ล่ม	-10.7851
ถนัด	-10.7851
คลี่คลาย	-10.7853
โอนเงิน	-10.7857
ก็ควร	-10.7858
ถัดไป	-10.7859
???	-10.786
ไว้ได้	-10.7861
ปีศาจ	-10.7862
▁ข้อ	-10.7862
ได้เดินทาง	-10.7864
ไม่ผ่าน	-10.7864
ปรารถนา	-10.7865
ตุลา	-10.7865
มองไม่เห็น	-10.7867
หน้าบ้าน	-10.7867
รัฐบาลไทย	-10.7868
ลุ	-10.787
ว่าฉัน	-10.7874
เดือด	-10.7878
สมุนไพร	-10.7879
กลุ่มนี้	-10.788
สละ	-10.7881
ทริป	-10.7884
ไม่ยอมรับ	-10.7884
เลยอ่ะ	-10.7885
ดวงตา	-10.7886
อธิษฐาน	-10.7886
ซีซั่น	-10.7887
ตรงๆ	-10.7892
การขนส่ง	-10.7894
หลังการ	-10.7895
็ก	-10.7896
time	-10.7897
อะไรก็	-10.7898
ดังต่อไป	-10.79
ไม่ใช่เหรอ	-10.7903
ia	-10.7905
ฮุ	-10.7906
แมค	-10.791
อยากกิน	-10.791
ไปเล่น	-10.7912
อ่าง	-10.7912
รักษาตัว	-10.7916
ไปรษณีย์	-10.7917
จะขอ	-10.7918
รอบคอบ	-10.7919
จะออก	-10.7921
ee	-10.7923
เบาะ	-10.7924
เซ็นเตอร์	-10.7925
คิ้ว	-10.7928
ทําให้คน	-10.7928
วงจรปิด	-10.7932
อ้อย	-10.7933
และมีการ	-10.7933
▁อยากได้	-10.7937
ภักดี	-10.7938
มีพื้นที่	-10.7939
รุ่งเรือง	-10.7946
za	-10.7948
ตอนเช้า	-10.7949
ตลอดชีวิต	-10.795
live	-10.7953
รูปธรรม	-10.7953
ion	-10.7957
เจดีย์	-10.796
พระนาม	-10.7961
คนพิการ	-10.7962
ซุก	-10.7964
ใหน	-10.7966
นท์	-10.7966
เรียนจบ	-10.7968
หลอด	-10.7971
ไปเจอ	-10.7973
มินิ	-10.7973
คิดจะ	-10.7974
ชีส	-10.7974
จะเป็นการ	-10.7979
ฏ	-10.798
เรากําลัง	-10.7982
มาทํางาน	-10.7983
ลัย	-10.7984
รึไง	-10.7984
ได้ประกาศ	-10.7988
ข้อมูลจาก	-10.799
ฟุต	-10.7992
3,000	-10.7992
พิจารณาคดี	-10.7993
เงินทุน	-10.7993
ไมล์	-10.7995
ของสหรัฐฯ	-10.7995
ในระยะ	-10.7997
เถื่อน	-10.8001
ลุงตู่	-10.8001
เน่	-10.8002
อยู่ใต้	-10.8003
ในตอนนี้	-10.8006
แลน	-10.8006
2%	-10.8009
อดีตนายก	-10.8013
▁จริง	-10.802
ทุเรียน	-10.8022
;-;	-10.8025
ฝนฟ้าคะนอง	-10.8026
ฟอร์	-10.8027
กฏ	-10.8029
▁ชาว	-10.8029
ต่างก็	-10.8034
ขจัด	-10.8034
จะเปิด	-10.8038
เก่าแก่	-10.8039
แทรกแซง	-10.8039
ว่าเธอ	-10.8043
ทั้งปวง	-10.8045
ไม่มีเงิน	-10.8047
แฟ	-10.8051
กวาง	-10.8052
นครพนม	-10.8057
ทรมหาภูมิ	-10.8058
ct	-10.8059
จึงจะ	-10.8059
คลับ	-10.806
เราต้องการ	-10.8065
แก๊ส	-10.8075
วว	-10.8076
ให้มา	-10.8078
คาดการณ์	-10.8083
ไปด้วยกัน	-10.8086
1)	-10.8087
กง	-10.8089
ดื้อ	-10.8089
▁มันจะ	-10.8091
ของนัก	-10.8091
พาย	-10.8092
ทําดี	-10.8098
การทดลอง	-10.8101
ส่งมอบ	-10.8104
ตั้งชื่อ	-10.8109
ประกวด	-10.811
แล้วนะคะ	-10.8111
ถึงแม้ว่า	-10.8118
เซ็ต	-10.8118
จะได้ไม่	-10.8119
รับงาน	-10.8121
นักวิจัย	-10.8123
ต่อย	-10.8124
มัธยม	-10.8126
รอบๆ	-10.8132
ผู้หญิงที่	-10.8135
เป็นรูป	-10.8135
เหมา	-10.8135
ไม่มาก	-10.814
je	-10.8141
การปฏิวัติ	-10.8142
ค่าแรง	-10.8143
ละครับ	-10.8145
▁ไม่มีใคร	-10.8149
บําบัด	-10.815
กระแทก	-10.815
โทษจําคุก	-10.8151
ไม่ได้หรอก	-10.8153
เน่า	-10.8154
เท่านี้	-10.8154
ที่รัฐบาล	-10.8159
เนย	-10.8159
มืออาชีพ	-10.8159
ในร้าน	-10.8162
ไปส่ง	-10.8164
คาว	-10.8164
มีผลงาน	-10.8167
ชดเชย	-10.8169
×	-10.817
▁ร้าน	-10.8171
ปีที่	-10.8173
ab	-10.8173
เขาทํา	-10.8174
กบฏ	-10.8175
ที่นิยม	-10.8175
ผช	-10.8177
เป็นอิสระ	-10.818
ก็อาจ	-10.8182
สนอง	-10.8186
กรี๊ด	-10.8186
ล้า	-10.8187
พยากรณ์	-10.819
ปน	-10.819
จะเลือก	-10.819
ดัดแปลง	-10.819
แบงค์	-10.8191
ว่าการ	-10.8194
จักรวาล	-10.8201
สายพันธุ์	-10.8201
1%	-10.8205
▁เคย	-10.8205
เป๊ะ	-10.8208
▁และมี	-10.8208
ฟิต	-10.8209
ม็อบ	-10.8213
รัฐศาสตร์	-10.8213
เขมร	-10.8218
yo	-10.8219
ในรูป	-10.8223
ในประวัติ	-10.8225
บูรณาการ	-10.8228
คล้ายๆ	-10.8228
ถึงการ	-10.823
สิ่งใด	-10.8234
จัดให้	-10.8235
ฟาด	-10.8237
แม่น้ําโขง	-10.8238
ดึงดูด	-10.8239
96	-10.8241
ส่งผล	-10.8244
คุน	-10.8251
อวยพร	-10.8252
ถูกจับกุม	-10.8253
▁โอ	-10.8253
ผ่อนคลาย	-10.8253
เรื่องจริง	-10.8254
กันนะ	-10.8255
ง่วง	-10.8255
มีเหตุ	-10.8258
มารยาท	-10.8258
ึก	-10.8265
อยู่ได้	-10.8272
พบกัน	-10.8273
มาเจอ	-10.8273
และต้อง	-10.8273
บริเวณหน้า	-10.8274
การรับ	-10.8275
ในโครงการ	-10.8277
ของญี่ปุ่น	-10.8279
ให้อภัย	-10.828
ชิป	-10.8283
งัด	-10.8283
ิด	-10.8283
พบเห็น	-10.8291
ฝ่าฝืน	-10.8293
เกมนี้	-10.8295
แว่น	-10.8302
พันธมิตรฯ	-10.8306
มด	-10.8308
ชาม	-10.8308
แห	-10.8308
สังเกตว่า	-10.8309
พูดเรื่อง	-10.8311
คนส่วนใหญ่	-10.8311
ในขณะนั้น	-10.8313
หย่า	-10.8313
ในชื่อ	-10.8315
คิดว่าจะ	-10.8316
ตกเป็น	-10.8317
ช่อ	-10.8319
เดีย	-10.832
โคราช	-10.832
ที่ออกมา	-10.8321
นําไปใช้	-10.8321
▁หนังสือ	-10.8324
light	-10.8329
อักเสบ	-10.833
ลลี่	-10.833
โทรคมนาคม	-10.8331
วันไหน	-10.8332
โน่	-10.8333
ยางพารา	-10.8333
ปฏิวัติ	-10.8338
กองทัพเรือ	-10.8341
ภัยพิบัติ	-10.8343
ก้อง	-10.8347
และกลุ่ม	-10.8348
ถ่านหิน	-10.8348
บะ	-10.8349
แรม	-10.8352
10,000	-10.8353
เคลือบ	-10.8354
บรรทุก	-10.8355
ชลประทาน	-10.8357
หลุยส์	-10.8357
ระบบการ	-10.8358
05	-10.8359
แรกๆ	-10.8363
พูดจา	-10.8365
เซ็กซี่	-10.8365
ได้นะ	-10.837
ซาร์	-10.8371
ได้ไป	-10.8371
ฟอล	-10.8375
ที่เกิดจาก	-10.8376
มีงาน	-10.8377
แล้วกัน	-10.8377
และจะ	-10.8378
รณ	-10.8381
พิการ	-10.8381
กฤษฎีกา	-10.8384
คู่กรณี	-10.8385
พะเยา	-10.8388
เสียเงิน	-10.8389
ก็ยังคง	-10.8391
▁ยิ่ง	-10.8394
ยึดอํานาจ	-10.8396
เธอได้	-10.8397
จดจํา	-10.84
๎	-10.84
เปล	-10.8401
มีเพื่อน	-10.8402
che	-10.8402
▁คิดว่า	-10.8403
จึงขอ	-10.841
จะรู้	-10.8411
บนเวที	-10.8411
นอนหลับ	-10.8412
ยังไงบ้าง	-10.8413
ขั้ว	-10.8413
ด้านนอก	-10.8415
ขอขอบคุณ	-10.8419
ัฐวิสาหกิจ	-10.8422
ขาดแคลน	-10.8422
จัดหา	-10.8423
chi	-10.8429
ธนาธร	-10.843
ให้เห็นถึง	-10.8431
ลิส	-10.8436
สระแก้ว	-10.8439
หมายจับ	-10.844
และถูก	-10.8441
ัล	-10.8441
อู่	-10.8445
จะบอก	-10.8447
มวล	-10.8449
เรียว	-10.8452
ซีน	-10.8454
นด์	-10.846
ต้องใช้เวล	-10.8462
ฮีโร่	-10.8463
แต่เขา	-10.8464
รถคัน	-10.8465
ลัด	-10.8466
ty	-10.847
ของเค้า	-10.8471
ll	-10.8474
ทั้งใน	-10.8475
หลบหนีไป	-10.8478
นั้นแหละ	-10.8478
ที่สร้าง	-10.8479
ในประเด็น	-10.8481
▁เด็ก	-10.8481
ทําให้มี	-10.8482
▁ในขณะที่	-10.8484
ทุกคนที่	-10.8486
ไม่ค่อยได้	-10.8486
ที่จําเป็น	-10.8491
รั่ว	-10.8492
หายาก	-10.8495
สมดุล	-10.8496
อวย	-10.8496
พระราม	-10.8497
ปตท	-10.8499
หัวหน้าคณะ	-10.8501
ความชัดเจน	-10.8501
เราเป็น	-10.8504
เวอร์ชั่น	-10.851
และเครื่อง	-10.8511
ไม่หยุด	-10.8512
bb	-10.8512
อั	-10.8513
จิงๆ	-10.8518
ด้า	-10.8518
ดิส	-10.852
ได้จาก	-10.8523
ปลอด	-10.8523
มากถึง	-10.8525
บทเพลง	-10.8526
ฉัตร	-10.8527
หงุดหงิด	-10.8529
นิล	-10.8529
เช็ด	-10.853
เถ	-10.8535
การกระจาย	-10.8537
4-5	-10.8539
แย	-10.854
เนส	-10.854
black	-10.854
แคร์	-10.8543
ระยะยาว	-10.8544
รอคอย	-10.8545
ทารก	-10.8546
ทําไมต้อง	-10.8547
ต้องดู	-10.8548
ว่าถ้า	-10.855
พระทัย	-10.8551
กระทบต่อ	-10.8553
เผ่า	-10.8554
ลุกขึ้น	-10.8557
เกต	-10.8558
ไม่มีวัน	-10.8558
เมื่อคุณ	-10.8559
เป็นร้าน	-10.856
บริโภค	-10.856
แช่	-10.8562
ยุติการ	-10.8563
สุเทพ	-10.8563
ได้ทุก	-10.8566
การบริการ	-10.8566
จัดส่ง	-10.8567
ยากที่จะ	-10.8568
249	-10.8568
ราชินี	-10.8568
อีกมากมาย	-10.8569
ไม่เพียงพอ	-10.857
ส่วนกลาง	-10.8575
โถ	-10.8575
ข้อจํากัด	-10.8576
ร่ํารวย	-10.8577
▁จ	-10.8579
ขึ้นกับ	-10.8579
หมุนเวียน	-10.8579
หนาแน่น	-10.858
▁มีการ	-10.858
บลู	-10.8581
งานที่	-10.8584
▁ในฐานะ	-10.8584
ประสบปัญหา	-10.8584
แต่ใน	-10.8586
เปียก	-10.8586
☺	-10.8586
เอ็นดู	-10.8587
เบี้ย	-10.859
สงเคราะห์	-10.8593
ขออภัย	-10.8601
1-1	-10.8603
นัดแรก	-10.8605
ร้	-10.8605
กว	-10.8606
วารสาร	-10.8607
ครบรอบ	-10.8609
ใกล้กับ	-10.8609
่ว	-10.8612
เพน	-10.8615
และเมื่อ	-10.8616
กรด	-10.8618
พังงา	-10.8621
วัฒน	-10.8621
ตอนจบ	-10.8621
ถือเป็นการ	-10.8623
โทรไป	-10.8624
02	-10.8626
ไว้เป็น	-10.8626
นานกว่า	-10.8628
จากผู้	-10.8628
อี้	-10.8632
▁ในปี	-10.8633
ลักลอบ	-10.8634
이	-10.8637
รูปทรง	-10.8638
การประเมิน	-10.8641
ก็ไม่ใช่	-10.8642
ด้วยเหตุผล	-10.8646
ดอนเมือง	-10.8647
โดยนาย	-10.8648
ตัวอักษร	-10.865
แมลง	-10.8652
กฎหมายอาญา	-10.8652
ลัง	-10.8654
บุกรุก	-10.8656
▁ปัจจุบัน	-10.8658
อัส	-10.8658
ตามหลัก	-10.8659
เร่งรัด	-10.8659
ข้อบังคับ	-10.866
ฮุน	-10.8661
อยากเป็น	-10.8663
สาน	-10.8664
คลาย	-10.8664
ของน้อง	-10.8665
สิ่งที่คุณ	-10.8666
เป็นอันดับ	-10.8667
โซเวียต	-10.8673
้ด	-10.8675
เอาเงิน	-10.8676
ไปเถอะ	-10.8677
ขี้เกียจ	-10.8679
ทําเรื่อง	-10.8679
เก่งมาก	-10.8681
ju	-10.8682
บด	-10.8683
เล่าเรื่อง	-10.8685
พอที่จะ	-10.8688
ประกาศใช้	-10.8692
ธี	-10.8695
ปีน	-10.8697
แน่ใจ	-10.8698
บอส	-10.8699
สืบเนื่อง	-10.8699
ในเมื่อ	-10.8702
ซิงเกิล	-10.8702
การขาย	-10.8702
ทุ่มเท	-10.8707
ยูโร	-10.8711
watch	-10.8712
คําร้อง	-10.8712
tic	-10.8715
ของพวก	-10.8716
จอย	-10.8717
คุณชื่นชอบ	-10.8717
จันทบุรี	-10.872
สิ่งเหล่า	-10.872
นี่เอง	-10.8722
ข้างหลัง	-10.8722
หากมี	-10.8722
180	-10.8722
ผืน	-10.8725
ไร้สาระ	-10.8725
ist	-10.8725
สกอร์	-10.8726
ทําไร	-10.8726
แบ่งปัน	-10.8727
97	-10.8728
	-10.8729
จําเลยที่	-10.8731
ที่มีต่อ	-10.8733
ภาคี	-10.8733
เฉพาะกิจ	-10.8735
การสืบสวน	-10.8735
บึง	-10.8736
อุทธรณ์	-10.8741
นะคับ	-10.8747
if	-10.8747
ในสหรัฐ	-10.8748
ดูสิ	-10.8751
under	-10.8751
รถเก๋ง	-10.8752
ไอเดีย	-10.8757
คุณหญิง	-10.8758
มีหลักฐาน	-10.876
pat	-10.8761
ip	-10.8761
อยู่ข้าง	-10.8762
เบร	-10.8763
คดีพิเศษ	-10.8764
ความไม่	-10.8765
มีเดีย	-10.8765
สันนิษฐาน	-10.8768
ถูกกล่าวหา	-10.8769
สีสัน	-10.8777
เผชิญ	-10.8778
ได้แต่	-10.878
555+	-10.8781
ปาร์ค	-10.8783
สม่ําเสมอ	-10.8786
ต้องรีบ	-10.8787
แพท	-10.8792
เพิกถอน	-10.8794
▁เออ	-10.8795
อร่อยมาก	-10.88
แคว้น	-10.8801
มิล	-10.8803
สับ	-10.8804
ริมถนน	-10.8805
เทนนิส	-10.8806
หลายประเทศ	-10.8808
แจ้งเตือน	-10.8811
ปกคลุม	-10.8812
ทําเพื่อ	-10.8815
แฮปปี้	-10.8815
สารภาพ	-10.8815
ยังไม่รู้	-10.8816
หวง	-10.8817
สภาผู้แทน	-10.8818
เขามา	-10.8818
ไอ้พวก	-10.8819
ได้เพียง	-10.882
เร็วกว่า	-10.8821
มันดู	-10.8821
2010	-10.8824
▁น่าจะ	-10.8824
สตูล	-10.8827
ปฐม	-10.8829
หน่อยนะ	-10.8829
สัญจร	-10.8829
เราจึง	-10.8831
โบว์	-10.8831
ชิบหาย	-10.8832
หมอน	-10.8833
ได้มีโอกาส	-10.8833
แท่น	-10.8834
่อ	-10.8834
อัง	-10.8837
ขณะนั้น	-10.8837
ถาปัตยกรรม	-10.8838
ความทุกข์	-10.8844
บ้านเกิด	-10.8846
หน้าร้าน	-10.8846
ทํายังไง	-10.8851
ว่าการกระท	-10.8856
เห็นใจ	-10.8858
ค้าขาย	-10.8858
อัตราการ	-10.8869
จิตร	-10.8871
ติดตัว	-10.8872
ติดต่อกับ	-10.8873
ตกลงกัน	-10.8873
การเพิ่ม	-10.8874
เสียหลัก	-10.8876
ปั๊ม	-10.8877
นิกาย	-10.888
▁4.	-10.888
ฟอง	-10.8881
วาทรง	-10.8882
หมู่เกาะ	-10.8882
กึ่ง	-10.8883
▁แต่ผม	-10.8884
เกษตรกรรม	-10.8885
บัดนี้	-10.8886
ปฏิ	-10.8888
มีความคิด	-10.889
ข่าวดี	-10.8891
พาน	-10.8895
หารือกับ	-10.8896
ster	-10.89
ังเกตการณ์	-10.8904
กรมการ	-10.8904
กาว	-10.8905
คนรุ่นใหม่	-10.8906
ลล์	-10.891
ชายหนุ่ม	-10.8911
อุทกภัย	-10.8912
บิ๊กตู่	-10.8912
วัฒนา	-10.8912
มหานคร	-10.8913
ทั้งหมดนี้	-10.8917
เหตุใด	-10.8918
โคก	-10.8919
ถามถึง	-10.892
ในการสร้าง	-10.8922
ปริมาณน้ํา	-10.8923
สวมใส่สบาย	-10.8924
แปซิฟิก	-10.8927
อวัยวะ	-10.893
หูฟัง	-10.8933
เล็บ	-10.8934
อย่ามา	-10.8934
ความสะดวก	-10.8935
มาอย่าง	-10.8936
เรามา	-10.8938
ที่จะให้	-10.8938
จารย์	-10.8938
หมิ่น	-10.8939
โทน	-10.8941
หากิน	-10.8942
ที่สุดคือ	-10.8945
หนองคาย	-10.8945
ซึ่งได้	-10.8947
กลางเมือง	-10.895
ไม่ใช่คน	-10.8951
เกษม	-10.8953
▁แต่ว่า	-10.8954
เก่าๆ	-10.8956
สวัสดี	-10.8957
เป็นข่าว	-10.8959
ut	-10.8959
ศีล	-10.8962
ปริศนา	-10.8962
ภัยแล้ง	-10.8965
org	-10.8968
มอร์	-10.8973
สวีเดน	-10.8974
il	-10.8975
เฮ้อ	-10.8977
เพื่อทํา	-10.8978
เชอร์	-10.8979
บัลลังก์	-10.898
เคล	-10.8982
ซิป	-10.8983
จะพยายาม	-10.8983
ประสบภัย	-10.8984
ล่ะครับ	-10.8987
พกพา	-10.8988
สิครับ	-10.8988
(1)	-10.8989
ศาลจังหวัด	-10.8992
แต่เรื่อง	-10.8992
คนขับรถ	-10.8993
va	-10.8995
เด็กหญิง	-10.8995
ในจํานวน	-10.8997
อีกเลย	-10.8997
แม่นยํา	-10.8999
ฝ่าบาท	-10.8999
จะทํายังไง	-10.8999
เป็นแฟน	-10.9001
ไต่สวน	-10.9004
ของสหรัฐ	-10.9004
ทํางานใน	-10.9004
แคปชั่น	-10.9004
งานของ	-10.9007
มุข	-10.9014
รูด	-10.9014
king	-10.9016
ค้าน	-10.9016
ของพวกเรา	-10.9018
แต่งงานกับ	-10.9019
เสนอชื่อ	-10.9019
เชียง	-10.9019
พอล	-10.902
ใด้	-10.9021
ผู้ร่วม	-10.9022
ของแม่	-10.9022
เพื่อขอ	-10.9023
เอาใจ	-10.9024
นั้นคือ	-10.9025
อุทิศ	-10.9026
ความดัน	-10.9027
▁แต่ฉัน	-10.9028
ปริญญาตรี	-10.9036
เก็บภาษี	-10.9037
เป็นต้นมา	-10.9043
เวลานี้	-10.9043
พ่วง	-10.9047
ผมเลย	-10.9056
เจ็บป่วย	-10.9061
เดียวที่	-10.9064
เวชชาชีวะ	-10.907
ข้างๆ	-10.9073
มาอยู่	-10.9073
วัต	-10.9075
ก็เห็น	-10.9076
ที่จังหวัด	-10.9078
กันมาก	-10.9078
หล่น	-10.9078
ได้ส่ง	-10.9079
3%	-10.9082
เลือกที่จะ	-10.9083
ยิ	-10.9085
นิค	-10.9086
จําไม่ได้	-10.9088
บั	-10.9089
ไม่ค่อยมี	-10.909
เสถียรภาพ	-10.9092
กับนาย	-10.9093
น่าเสียดาย	-10.9094
ก้าน	-10.91
ที่ห้อง	-10.9101
ผู้อ่าน	-10.9102
อ่างทอง	-10.9103
ชุม	-10.9103
สําคัญใน	-10.9103
ไม่ไป	-10.9104
พระพุทธเจ้	-10.9104
ท้า	-10.9106
เหนือกว่า	-10.9107
ของลูก	-10.9107
▁ไม่ว่า	-10.9108
ของกระทรวง	-10.9111
ot	-10.9117
ครั้งแรกใน	-10.912
คีรีขันธ์	-10.912
รายใหญ่	-10.9122
🥺	-10.9123
pre	-10.9123
ผมไป	-10.9124
มีประสิทธิ	-10.9125
center	-10.9125
ได้กล่าว	-10.9125
ซุป	-10.9126
เปิดบ้าน	-10.9127
คลินิก	-10.9127
สเต	-10.9129
▁สรุป	-10.913
อส	-10.9131
นักวิทยา	-10.9134
ยังไม่เคย	-10.9135
ทูล	-10.9136
นิพนธ์	-10.9137
ความดี	-10.9138
เครือ	-10.9139
มีโอกาสได้	-10.9141
ที่ยังไม่	-10.9143
04	-10.9144
ผู้กระทํา	-10.9145
ชื่อว่า	-10.9146
สิง	-10.9147
ต้องหา	-10.915
สปช	-10.9153
▁นี่มัน	-10.9154
ลงวันที่	-10.9155
ตายไป	-10.9155
ตนได้	-10.9155
♥	-10.9156
อยากมี	-10.9159
⁠	-10.9159
▁เอาล่ะ	-10.9161
นี้แหละ	-10.9163
▁งาน	-10.9165
ให้ใช้	-10.9167
รายงานตัว	-10.9168
ทักทาย	-10.9169
โดยจะ	-10.917
รายการนี้	-10.9171
สดชื่น	-10.9171
การแสดงออก	-10.9171
หลายเรื่อง	-10.9173
ent	-10.9177
เขตพื้นที่	-10.9179
จิก	-10.9179
จริงๆนะ	-10.9181
เจอกับ	-10.9182
มีเสียง	-10.9183
เต็มๆ	-10.9183
และสร้าง	-10.9185
เลยคะ	-10.9189
83	-10.919
เม็กซิโก	-10.919
เมื่อเรา	-10.919
	-10.919
.9	-10.9193
ตรงกันข้าม	-10.9193
ศิลา	-10.9193
ปาล์ม	-10.9193
จนต้อง	-10.9198
ประมาท	-10.9201
โครงการนี้	-10.9201
จัดระเบียบ	-10.9203
eng	-10.9204
เผชิญหน้า	-10.9207
ที่สุดของ	-10.9208
กินอาหาร	-10.9218
อ่าวไทย	-10.9225
รายเดือน	-10.9227
รับซื้อ	-10.9228
ค่าเสียหาย	-10.9229
ทัศนะ	-10.923
▁ถ้าเรา	-10.9231
ยากมาก	-10.9233
ตั้งแต่ต้น	-10.9238
จะดู	-10.9238
โนะ	-10.9238
ให้คนอื่น	-10.9239
เผลอ	-10.9241
นายพล	-10.9241
ศาสตร์และ	-10.9244
การนําเสนอ	-10.9244
เยอะเลย	-10.9245
ทุกสิ่ง	-10.9248
ไวน์	-10.9248
ห่วย	-10.9251
bts	-10.9251
บาส	-10.9252
แน่นอนว่า	-10.9254
มาน	-10.9257
ครึ่งหลัง	-10.9259
▁อี	-10.9261
ได้พบ	-10.9263
ม์	-10.9264
สิทธิมนุษย	-10.9267
ได้โปรด	-10.927
ขัดขวาง	-10.9273
terms	-10.9277
สถาปนา	-10.9278
71	-10.928
สองสาม	-10.9282
อ่ะค่ะ	-10.9283
ให้โอกาส	-10.9283
ซิส	-10.9284
พบปะ	-10.9288
คดีอาญา	-10.929
สกปรก	-10.9291
มาร่วมงาน	-10.9292
ลงมติ	-10.9299
197	-10.9299
ธีร	-10.93
น้ําใจ	-10.93
ให้เด็ก	-10.9301
ของคณะ	-10.9302
ฉันไม่	-10.9303
ไซด์	-10.9304
ทางอากาศ	-10.9305
pan	-10.9305
ตั้งกระทู้	-10.9306
ลอนดอน	-10.9307
เย็บ	-10.9308
อ้อ	-10.9309
รูปภาพ	-10.9309
ลําพูน	-10.9309
โคล	-10.9312
ber	-10.9315
ฮั	-10.9315
กั	-10.9316
art	-10.9321
ไทร	-10.9322
อิม	-10.9322
แบบที่	-10.9327
ไปไกล	-10.9327
free	-10.9327
หรอกค่ะ	-10.9329
กันแน่	-10.9334
รีน	-10.9335
ทางเดิน	-10.9336
สะดวกสบาย	-10.9336
ไปตรวจสอบ	-10.9341
พื้นบ้าน	-10.9341
พร้อมจะ	-10.9343
เดิมๆ	-10.9344
มีการใช้	-10.9344
ชั้นนํา	-10.9346
กล่าวคือ	-10.9347
ในการพัฒนา	-10.9352
bangkok	-10.9354
ความตั้งใจ	-10.9354
จัดการกับ	-10.9355
ปอนด์	-10.9357
let	-10.9358
รวด	-10.9359
ความเ	-10.9362
เปร	-10.9364
รัย	-10.9366
รุ่นที่	-10.9369
การประท้วง	-10.9372
ตู่	-10.9375
ong	-10.9376
ย้ําว่า	-10.9378
ที่ช่วย	-10.938
ตื่นมา	-10.9381
ฉันไม่ได้	-10.9381
าภรณ์	-10.9384
โน้น	-10.9384
ได้เปรียบ	-10.9387
3.5	-10.9387
ตั้งครรภ์	-10.9389
เพื่อใช้	-10.9389
บริษัทฯ	-10.9391
การละเมิด	-10.9391
ผวจ	-10.9396
ยากจน	-10.9397
นัดที่	-10.9398
ที่สูง	-10.9398
uk	-10.9398
▁จริงๆ	-10.9399
สก	-10.94
เทล	-10.94
สมาชิกพรรค	-10.9401
สีเทา	-10.9402
คําอธิบาย	-10.9406
จะพา	-10.9408
คลุม	-10.9408
ของคนไทย	-10.9412
ความเจริญ	-10.9412
ร่วมมือกัน	-10.9414
ออม	-10.9414
อธิการบดี	-10.9418
ควรมี	-10.9418
อะไรกับ	-10.9419
ต่อว่า	-10.9421
จะรับ	-10.9421
นัม	-10.9422
เสียภาษี	-10.9422
ปาร์ตี้	-10.9423
เย้	-10.9423
▁มันก็	-10.9423
ตัวเล็ก	-10.9424
โร่	-10.9427
ยอมให้	-10.943
แจ้งข้อหา	-10.9438
ไอโฟน	-10.944
ในชุมชน	-10.9441
ยืนอยู่	-10.9443
สง	-10.9443
คณะอนุกรรม	-10.9444
สระบุรี	-10.9446
ยุ่งยาก	-10.9449
ไม่เข้า	-10.9451
ฉันต้อง	-10.9454
การยอมรับ	-10.9455
7-	-10.9458
ไม่มีเวลา	-10.9459
way	-10.9466
เข่า	-10.9466
ลิป	-10.9466
ครั้งนั้น	-10.9473
สามารถนํา	-10.9474
ตอง	-10.9474
พอร์ต	-10.9476
ขึ้นรถ	-10.9477
ตามขั้นตอน	-10.9479
ห้องประชุม	-10.9479
รอบแรก	-10.9481
ติ้ง	-10.9483
▁ฉันไม่ได้	-10.9483
boy	-10.9483
็อง	-10.9485
▁ราคา	-10.9486
ตั้งเป้า	-10.9487
ก็ถือว่า	-10.9488
ศีลธรรม	-10.9489
💙	-10.9493
ในยุโรป	-10.9493
ของพื้นที่	-10.9495
ชาติพันธุ์	-10.9499
ส่วนใหญ่จะ	-10.95
ไอ่	-10.95
ุ้ย	-10.9502
โล่	-10.9503
กล้าหาญ	-10.9503
ทาย	-10.9504
โจทย์	-10.9504
กันเถอะ	-10.9505
สงวน	-10.9509
เงียบๆ	-10.9512
ปารีส	-10.9512
เชีย	-10.9515
จะช่วยให้	-10.9516
พิธีกร	-10.9516
คติ	-10.9516
หาข้อมูล	-10.9517
คุณยาย	-10.9519
น้ําหนักเบ	-10.9524
แล้วมัน	-10.9525
สมาธิ	-10.9526
ให้ฟัง	-10.9526
แฮม	-10.9527
เสียก่อน	-10.9527
พนม	-10.953
น่าเบื่อ	-10.9533
ชัยภูมิ	-10.9535
กาฬสินธุ์	-10.9539
โครต	-10.954
จับตา	-10.9544
ออร์	-10.9544
ประจําตัว	-10.9545
เป็นกลาง	-10.9545
เป็นเหมือน	-10.9545
(2)	-10.9546
การบริโภค	-10.9548
จัดเก็บ	-10.9551
ตม	-10.9551
แฝง	-10.9554
yu	-10.9556
tra	-10.9557
ล่าช้า	-10.9558
เราอยู่	-10.9558
ผมต้อง	-10.9558
ให้นาย	-10.956
น้อยที่สุด	-10.956
บ้างครับ	-10.9562
สมรส	-10.9564
ผิวหนัง	-10.9566
ที่ทหาร	-10.9567
นั่นเป็น	-10.9568
โซ่	-10.9569
อัครราชทูต	-10.9569
รอบนี้	-10.957
เนต	-10.9571
ลงประชามติ	-10.9583
ส่งมา	-10.9585
โฟกัส	-10.9585
น๊า	-10.9587
ที่ไม่ใช่	-10.959
11.	-10.959
บอ	-10.959
วิศวกรรม	-10.9591
เอาผิด	-10.9594
สะกด	-10.9594
นันท	-10.9595
ว่าไง	-10.9597
วก	-10.9604
โปรดเกล้าฯ	-10.9605
ชิด	-10.9606
á	-10.9606
แปลกใจ	-10.9613
นั้นได้	-10.9613
เมล	-10.9613
ตั้งแต่แรก	-10.9613
นํากําลัง	-10.9616
ตราด	-10.9618
เตรียมการ	-10.9618
ลงคะแนน	-10.962
เฮ้	-10.9621
ฟิล	-10.9623
ข้างบน	-10.9624
เป็นมนุษย์	-10.9627
ลิก	-10.9627
ผมชอบ	-10.9627
ปกปิด	-10.9627
มัว	-10.9628
ten	-10.9628
▁มาตรา	-10.9629
ต่อกัน	-10.9632
เหว	-10.9636
ในโรงเรียน	-10.9637
ุม	-10.9637
ที่เค้า	-10.9637
เลยเหรอ	-10.9639
ทั้งสาม	-10.964
ไอดอล	-10.9643
ไมเคิล	-10.9643
ั้น	-10.9645
▁อืม	-10.9654
เพลิน	-10.9656
ปานกลาง	-10.9656
วงจร	-10.9656
บ้างไหม	-10.9657
ได้เจอ	-10.966
ินทร์	-10.966
▁เพิ่ง	-10.966
กมล	-10.9662
สร้อย	-10.9668
ทั้งๆ	-10.9669
เชื้อสาย	-10.9671
๊ด	-10.9672
ซึ้ง	-10.9673
,-	-10.9673
ัว	-10.9675
จุดยืน	-10.9677
กําแพงเพชร	-10.9678
บุรี	-10.968
ตอบโจทย์	-10.9681
น้ําตก	-10.9682
มิตรภาพ	-10.9683
นิก	-10.9684
ถัดมา	-10.9685
เห็นภาพ	-10.9685
เหมือนจะ	-10.9693
เป็นช่วง	-10.9695
ศิ	-10.9696
สถานีรถไฟ	-10.97
เออร์	-10.97
โคน	-10.97
รวมตัว	-10.97
ข้าวโพด	-10.9701
มีมูลค่า	-10.9702
สหภาพยุโรป	-10.9703
ในรัฐ	-10.9705
แนวร่วม	-10.9709
วอร์	-10.9712
dr	-10.9712
ด้วยตนเอง	-10.9717
เกล้า	-10.972
ซีเกมส์	-10.972
เซ็ง	-10.9721
จากนั้นก็	-10.9723
และนัก	-10.9725
มะนาว	-10.9727
ประภา	-10.9727
จบลง	-10.9729
ประณาม	-10.973
ผมขอ	-10.9733
ตี๋	-10.9735
mail	-10.9736
ชาร์ต	-10.9738
ยังอยู่ใน	-10.9738
ซึ่งอยู่	-10.9739
ก็คงจะ	-10.9742
ts	-10.9745
ก็อยาก	-10.9745
5,	-10.9746
ชั่ง	-10.9747
มีพลัง	-10.9749
เลยนะครับ	-10.9749
hu	-10.975
ราษฎร์	-10.9753
ต้องจ่าย	-10.9757
แห่งการ	-10.9757
โมเดล	-10.9758
พระวิหาร	-10.9759
บล	-10.9762
ด้วยเหตุ	-10.9763
โล่ง	-10.9763
ถอดถอน	-10.9764
ความงาม	-10.9765
เลียนแบบ	-10.9767
ดินโลก	-10.9767
มัง	-10.9767
ปีเตอร์	-10.9769
หรือจะ	-10.9769
มีวิธี	-10.9771
รับราชการ	-10.9771
เทค	-10.9771
จับกุมตัว	-10.9773
ซื้อสินค้า	-10.9773
ไม่กลัว	-10.9774
เวลาต่อมา	-10.9774
หม่อม	-10.9774
ang	-10.9775
▁จน	-10.9777
เมืองทอง	-10.9778
นานแล้ว	-10.9781
เด็กชาย	-10.9784
เคยทํา	-10.9785
ขอบคุณที่	-10.9787
วิส	-10.9787
สกลนคร	-10.979
war	-10.979
ื้อ	-10.9791
ครอบงํา	-10.9791
วั	-10.9793
ปวดหัว	-10.9794
เซียน	-10.9795
ไหม้	-10.9796
โด่งดัง	-10.9797
▁ทําไมคุณ	-10.9798
▁กรณี	-10.9799
ั้ง	-10.9801
ul	-10.9806
นี้แล้ว	-10.9807
กับทีม	-10.9808
จะชนะ	-10.9812
ร้านขาย	-10.9813
จุก	-10.9816
สถานทูต	-10.9819
เทือกเขา	-10.982
แอดมิน	-10.9821
อนุสาวรีย์	-10.9821
▁ตอนแรก	-10.9822
อนุบาล	-10.9823
ไม่เคยเห็น	-10.9826
จบแล้ว	-10.9826
เราก็จะ	-10.9827
ลาดพร้าว	-10.9829
▁ขอโทษ	-10.9831
๊อ	-10.9832
ได้ทั้ง	-10.9836
ร่	-10.9841
heart	-10.9842
แทรก	-10.9847
พญา	-10.9848
▁เปิด	-10.9849
เรส	-10.9852
ทางทะเล	-10.9856
ร้องทุกข์	-10.9856
เหงื่อ	-10.9856
มีน	-10.986
ฝึกซ้อม	-10.9861
ภาพแวดล้อม	-10.9862
บุตรชาย	-10.9864
การใช้จ่าย	-10.9866
ตั้งใจจะ	-10.9867
สีน้ําตาล	-10.9868
เห้อ	-10.9872
▁สวย	-10.9872
มากิน	-10.9875
6,	-10.9879
มันได้	-10.9879
หน้ากาก	-10.988
ผมเห็น	-10.988
พ่ายแพ้	-10.988
หัวหิน	-10.988
บอกฉัน	-10.988
:00	-10.9881
อํานวย	-10.9882
มันไป	-10.9883
สมุทรสาคร	-10.9883
ป่วน	-10.9885
7%	-10.9892
บริหารจัด	-10.9894
แม่น	-10.9898
และสหกรณ์	-10.9898
เว้นแต่	-10.9901
เกล	-10.9911
ต่อยอด	-10.9916
ล่อ	-10.992
พวง	-10.9923
ที่หน้า	-10.9923
นครบาล	-10.9925
โปรตุเกส	-10.9925
pm	-10.9926
แต่ก่อน	-10.9926
ไก	-10.9927
หุ้ม	-10.9929
เห็นแก่ตัว	-10.993
เล่นได้	-10.993
สําเนา	-10.9931
และมีความ	-10.9931
ตํารา	-10.9932
นอ	-10.9932
รุ้	-10.9934
มีความผิด	-10.9934
เลี้ยงลูก	-10.9935
พูดกัน	-10.9935
มีรายงานว่	-10.9936
ประชาสังคม	-10.9937
การตั้ง	-10.994
ยานหลักฐาน	-10.9942
สารพัด	-10.9943
ของจังหวัด	-10.9945
เร่	-10.9946
แคป	-10.9947
การพูดคุย	-10.9949
เจ้าฟ้า	-10.9952
ประจักษ์	-10.9955
ทําไป	-10.9956
มิว	-10.9957
สรุปว่า	-10.9957
กินยา	-10.9958
เพราะการ	-10.9959
ื่	-10.9959
แซว	-10.996
have	-10.9962
ร่วมประชุม	-10.9962
นอร์	-10.9962
20,000	-10.9964
ในสังกัด	-10.9966
รู้ตัว	-10.9968
เรตติ้ง	-10.9969
การประกวด	-10.9971
เวียง	-10.9973
ได้เลยค่ะ	-10.9974
💗	-10.9978
ไปพบ	-10.9981
หรอคะ	-10.9984
-8	-10.9984
ขอแสดงความ	-10.9985
ml	-10.9985
ซึ่งอาจ	-10.9986
มีคนมา	-10.9988
พฤหัสบดี	-10.9988
โซล	-10.9989
ser	-10.999
ตัวเองว่า	-10.9991
ผู้ดูแล	-10.9994
สุนทร	-10.9995
เดินมา	-10.9995
วรรค	-10.9999
ฮิต	-11.0001
ซิล	-11.0001
เสก	-11.0002
เขาบอกว่า	-11.0002
ชาร์	-11.0003
ที่มัน	-11.0006
ขึ้นนํา	-11.0009
ต้องการของ	-11.001
ใจเย็น	-11.001
ก็ยังมี	-11.0011
ผู้เป็น	-11.0012
ทําพิธี	-11.0012
ทํามัน	-11.0013
ของพระ	-11.0014
ส่วนลด	-11.0017
สวด	-11.002
และทํา	-11.0025
เหมือง	-11.0025
อธิบายว่า	-11.0026
พ้นจาก	-11.0027
อย่าเพิ่ง	-11.0032
ฤกษ์	-11.0035
ผู้ค้า	-11.0035
ของเล่น	-11.0036
แบร์	-11.0043
พ่น	-11.0044
ผมมี	-11.0045
พ่าย	-11.0046
มองหา	-11.0046
ช์	-11.0046
ท่อง	-11.0047
หลื่อมล้ํา	-11.0049
mp	-11.005
้ย	-11.005
ประกาศว่า	-11.005
3)	-11.0052
ผมยัง	-11.0053
สนามหลวง	-11.0055
play	-11.0057
พูล	-11.0057
ผญ	-11.0059
คุณธรรม	-11.006
เพราะความ	-11.0063
จุง	-11.0063
กับลูก	-11.0065
เล่นกับ	-11.0068
หรอครับ	-11.0068
เลยอะ	-11.0069
อาจจะไม่	-11.0072
กัง	-11.0073
แบงก์	-11.0074
om	-11.0075
จอน	-11.0076
2008	-11.0076
ญาณ	-11.0076
ได้หมด	-11.0078
gen	-11.0079
สุจริต	-11.0084
ไปช่วย	-11.0086
html	-11.0092
ให	-11.0092
เอาแต่	-11.0093
ทําให้เธอ	-11.01
เถียง	-11.0101
เชื่อฟัง	-11.0102
back	-11.0105
ที่โรงแรม	-11.0106
ได้ทันที	-11.0107
การผ่าตัด	-11.011
ว่าอะไร	-11.0111
ฮาร์	-11.0115
name	-11.0115
ใครที่	-11.0119
ออกมาได้	-11.012
แจ่ม	-11.0122
แหล่งน้ํา	-11.013
พูดคุยกัน	-11.013
เซ็นสัญญา	-11.0131
เยน	-11.0132
ของพ่อ	-11.0134
ทางเจ้าหน้	-11.0135
วันเดียว	-11.0139
sub	-11.014
est	-11.0141
เกิดเมื่อ	-11.0141
จิ้ม	-11.0142
แก่ผู้	-11.0144
เพื่อลด	-11.0144
mm	-11.0145
เอม	-11.0146
เบนซ์	-11.0147
ั่ง	-11.015
ใหญ่กว่า	-11.0151
ดม	-11.0152
ผลัก	-11.0152
บวม	-11.0152
ลพบุรี	-11.0153
แต่สิ่งที่	-11.0153
อฟ	-11.0154
รองชนะเลิศ	-11.0159
ฟังดู	-11.0159
▁ประธาน	-11.0159
ถนนสาย	-11.0159
คุกคาม	-11.016
ใส่ชุด	-11.0162
มันไม่มี	-11.0162
นี้เอง	-11.0165
ในสภา	-11.0167
ของชีวิต	-11.0167
ม่อน	-11.0168
อ้าย	-11.0168
ต่อจาก	-11.0168
ของนาง	-11.0172
ถึงที่สุด	-11.0174
แมตช์	-11.0174
บอน	-11.0179
ิ้น	-11.0182
สูบน้ํา	-11.0188
ข้างล่าง	-11.0192
มีระบบ	-11.0193
กลัวว่า	-11.0193
เปีย	-11.0193
ของเมือง	-11.0196
เหลือเพียง	-11.0197
only	-11.0199
น้ําจิ้ม	-11.02
ถึงบ้าน	-11.0202
don	-11.0203
ส่งไป	-11.0204
อันดับแรก	-11.0204
เเม่	-11.0204
💚	-11.0209
▁คาดว่า	-11.0211
โดยรอบ	-11.0212
รังเกียจ	-11.0213
ผลักดันให้	-11.0223
ที่จะมา	-11.0224
ที่จอดรถ	-11.0224
ให้เกียรติ	-11.0224
ผู้ลี้ภัย	-11.0225
ชื่นชอบ	-11.0225
ดาวน์	-11.0228
ในรถ	-11.0231
๊บ	-11.0233
กรอก	-11.0233
คาบ	-11.0234
สบ	-11.0238
สนธิ	-11.0239
ผลงานของ	-11.0241
กลยุทธ์	-11.0243
ข้อเสีย	-11.0243
สําหรับผม	-11.0243
ใช้จ่าย	-11.0245
ทายาท	-11.0245
แหก	-11.0246
ดีมากๆ	-11.0249
ยาวๆ	-11.0252
มีข้อ	-11.0254
4.0	-11.0255
เนตร	-11.0256
จะดีกว่า	-11.026
ตระหนัก	-11.0265
ที่ระลึก	-11.0267
ส่วนการ	-11.027
จะโดน	-11.027
rd	-11.0271
ที่ท่าน	-11.0271
วางไว้	-11.0271
นักรบ	-11.0276
มน	-11.028
ให้เค้า	-11.0281
ปืนใหญ่	-11.0284
▁ปัญหา	-11.0288
อาร์เซนอล	-11.0293
ริค	-11.0294
ปิดกั้น	-11.0294
ทําแบบนั้น	-11.0295
é	-11.0297
ปรากฏตัว	-11.0297
มัธยมศึกษา	-11.0298
จิตสํานึก	-11.0299
ดวงอาทิตย์	-11.0299
กรู	-11.0302
สําหรับเรา	-11.0303
คว่ํา	-11.0304
call	-11.0305
จากประชาชน	-11.0307
ไว้ด้วย	-11.0308
นางแบบ	-11.0308
มันเลย	-11.0309
ยี่	-11.0309
ตระ	-11.0309
การอ่าน	-11.031
ก่อนนะ	-11.031
ปะทะ	-11.031
อันดามัน	-11.0311
สันติสุข	-11.0316
สีหน้า	-11.0322
ผู้ต้องขัง	-11.0324
เรียบง่าย	-11.0325
การเข้าถึง	-11.0329
เหลี่ยม	-11.0329
get	-11.0331
thairath	-11.0331
ด้านนาย	-11.0333
วันก่อน	-11.0334
และหัวหน้า	-11.0336
กวี	-11.0337
ลวดลาย	-11.0341
เรย์	-11.0341
จุล	-11.0342
มนต์	-11.0343
▁เอ่อ	-11.0343
เพราะผม	-11.0343
มาเลย	-11.0344
ในสังคมไทย	-11.0347
ฉะเชิงเทรา	-11.0348
😢	-11.0351
ข้อมือ	-11.0351
เสียงข้าง	-11.0352
แบค	-11.0353
เกรงว่า	-11.0354
ทําให้ผม	-11.0354
กราฟ	-11.0356
sta	-11.0357
มากพอ	-11.0357
👉	-11.0361
ใช้คําว่า	-11.0361
ไทยลีก	-11.0362
ภาพที่	-11.0362
ปาง	-11.0363
โตขึ้น	-11.0363
ศัพท์	-11.0363
google	-11.0366
ร้อยเอ็ด	-11.0366
▁โดยจะ	-11.0366
ใช้กับ	-11.0371
แปรรูป	-11.0374
สําอาง	-11.0374
ในระยะยาว	-11.0376
sport	-11.0377
ต้นสังกัด	-11.0377
ที่ยอมรับ	-11.0378
▁มีคน	-11.0378
สนธิสัญญา	-11.0379
อธิบดี	-11.0383
not	-11.0384
กําลังพล	-11.0385
แล้ง	-11.0389
ดิ้น	-11.0389
ขนาน	-11.0399
แชมป์โลก	-11.0403
โลม	-11.0404
ถก	-11.0405
อั้ม	-11.0408
ฉบับใหม่	-11.0409
350	-11.041
ข่าวลือ	-11.041
ลวง	-11.0412
ก็ไม่ต้อง	-11.0412
ลีลา	-11.0412
รับมือกับ	-11.0415
ก็ยิ่ง	-11.0416
หาทางออก	-11.0416
สมุด	-11.0418
0.5	-11.0419
เจีย	-11.042
ตะวัน	-11.042
วันนึง	-11.0423
เลขานุการ	-11.0424
การประมูล	-11.0427
การจ้างงาน	-11.0429
เฟล	-11.043
91	-11.0431
ส่งฟรี	-11.0432
dy	-11.0434
ภายใต้การ	-11.0434
ant	-11.0436
แต่ฉัน	-11.0438
ไปถาม	-11.0438
รออยู่	-11.0439
จัดแสดง	-11.0442
มหาสมุทร	-11.0442
ทีไร	-11.0445
ผึ้ง	-11.0446
ที่บอกว่า	-11.0448
เพราะถ้า	-11.045
นายสุ	-11.0451
ปลายปี	-11.0452
การจัดทํา	-11.0454
สมานฉันท์	-11.0456
เราเห็น	-11.0458
82	-11.0458
ฮว	-11.0459
เบส	-11.0459
ปริญญา	-11.0459
สติปัญญา	-11.046
กรณีการ	-11.046
รถโดยสาร	-11.0464
ไม่ได้ทํา	-11.0466
2563	-11.0468
2009	-11.0469
มึน	-11.0476
ติดขัด	-11.0479
แม่บ้าน	-11.0483
บกพร่อง	-11.0484
แจ็ค	-11.0484
ของข้า	-11.0485
เกราะ	-11.0486
แย่มาก	-11.0487
วรรณกรรม	-11.0488
ไอซ์	-11.0491
ตามพระราช	-11.0492
เซเว่น	-11.0492
ย้ายมา	-11.0493
ชาญ	-11.0494
จะทําได้	-11.0495
ส่วนผสม	-11.0496
ดอร์	-11.0497
แพร่หลาย	-11.0498
สแกน	-11.05
▁ด้าน	-11.0501
กุศล	-11.0503
เป็นแม่	-11.0503
แต่ไม่ใช่	-11.0503
ft	-11.0503
การบินไทย	-11.0504
ครึ่งแรก	-11.0504
ได้มั้ยคะ	-11.0505
94	-11.0505
มีการนํา	-11.0506
กับคนที่	-11.0507
กันเป็น	-11.051
หายตัวไป	-11.0513
เหน	-11.0514
จิ้น	-11.0515
ผลตอบแทน	-11.0516
หล่อมาก	-11.0519
เดท	-11.0519
กับเรื่อง	-11.052
หรือมี	-11.0523
เหลืออยู่	-11.0524
็อก	-11.0525
เตี้ย	-11.0529
เป็นเมือง	-11.0533
ฤดูหนาว	-11.0535
การนําเข้า	-11.0537
usb	-11.0538
ah	-11.0538
กองหลัง	-11.0538
บริหารงาน	-11.0542
หมอก	-11.0542
home	-11.0542
4,000	-11.0543
▁พอดี	-11.0544
บาดแผล	-11.0546
การจัดงาน	-11.0547
เหล	-11.0547
ส่งสัญญาณ	-11.0548
ได้ออก	-11.055
power	-11.0554
ล่วง	-11.0554
ช็อป	-11.0555
เคยเจอ	-11.0556
ทุกภาคส่วน	-11.0556
▁ตน	-11.0557
2535	-11.0557
ของพระเยซู	-11.0561
แปร	-11.0561
กองบัญชา	-11.0562
work	-11.0568
💖	-11.0568
เงินรางวัล	-11.0573
จริงใจ	-11.0575
our	-11.0575
2011	-11.0579
กับแม่	-11.058
ป้อน	-11.0581
ทําผลงาน	-11.0581
เรอัล	-11.0583
ถูกทําลาย	-11.0583
การเปิด	-11.0583
ใครสักคน	-11.0585
ค่าเช่า	-11.0588
ของฝ่าย	-11.0589
สู	-11.0589
จอร์จ	-11.0591
ขัดต่อ	-11.0591
เลิกจ้าง	-11.0592
อ่านข่าว	-11.0596
ก่	-11.06
ขุนนาง	-11.0601
หากไม่	-11.0602
หากษัตริย์	-11.0604
และไม่มี	-11.0604
ยับยั้ง	-11.0606
ไม่รู้สึก	-11.0607
ช้อน	-11.0608
พวกเจ้า	-11.061
คนดัง	-11.0611
โลหิต	-11.0611
และคณะ	-11.0618
กระทู้นี้	-11.0618
ตรงกลาง	-11.0621
อาหารที่	-11.0621
ไม่รอด	-11.0622
แมท	-11.0625
วัล	-11.0626
.58	-11.0628
ราคาสินค้า	-11.0635
ทว่า	-11.0637
แวน	-11.0638
mini	-11.0638
ช็อก	-11.064
ของกฎหมาย	-11.064
เห็นแล้ว	-11.0641
เสวนา	-11.0643
บรรเทา	-11.0643
team	-11.0643
มีข้อมูล	-11.0644
ได้จัด	-11.0647
บอกกับ	-11.0648
ช่วยชีวิต	-11.0651
สิทธิบัตร	-11.0653
ปิ่น	-11.0653
จุดนี้	-11.0654
ทํางานหนัก	-11.066
ซัมเมอร์	-11.0665
🙄	-11.0668
ด้วยวิธี	-11.0668
ตอนนี้ก็	-11.067
กระแสข่าว	-11.067
ฟอก	-11.0671
ana	-11.0672
เพิ่งจะ	-11.0674
้อง	-11.0675
แบ็ก	-11.0675
กรีน	-11.0675
จิ๋ว	-11.0675
ตาล	-11.0683
จะเดินทาง	-11.0684
ฝากขัง	-11.0684
ให้ความรู้	-11.0684
พระที่นั่ง	-11.0685
ออกกฎหมาย	-11.0687
นายแพทย์	-11.0689
ปลดปล่อย	-11.069
4%	-11.069
ตอนไหน	-11.069
คิดว่ามัน	-11.0695
cm	-11.0695
tri	-11.0695
สุดในโลก	-11.0696
จําได้ว่า	-11.0696
ทําหนังสือ	-11.0696
หิมะ	-11.07
สงครามโลก	-11.07
ข้ออ้าง	-11.0701
โรย	-11.0703
ทวีป	-11.0704
คุณกําลัง	-11.0705
สถานศึกษา	-11.0705
คอก	-11.0706
จารึก	-11.0707
ขั้นตอนการ	-11.0709
พวกท่าน	-11.0711
ท้องฟ้า	-11.0712
จากการที่	-11.0713
ลัน	-11.0713
ลักษณะของ	-11.0718
ไถ	-11.072
ที่ทําการ	-11.0721
max	-11.0723
อยู่ในสภาพ	-11.0725
สมทบ	-11.0726
ี้ย	-11.0727
การซื้อขาย	-11.0729
ทีมข่าว	-11.0731
age	-11.0731
นีย์	-11.0732
ผู้จัด	-11.0733
สาด	-11.0737
เพื่อนสนิท	-11.0738
ในช่วงที่	-11.0738
กลุ่มที่	-11.074
เติมเงิน	-11.0741
รมน	-11.0741
กล่าวหาว่า	-11.0743
ตามคําสั่ง	-11.0745
หุ่นยนต์	-11.0746
เรียล	-11.0749
note	-11.0752
-3	-11.0753
ที่ตน	-11.0753
ก็ทําให้	-11.0758
ก็โอเค	-11.0761
อรรถ	-11.0761
ก็ชอบ	-11.0761
ศูนย์การค้	-11.0761
ฝ่ายวิญญาณ	-11.0762
แอม	-11.0764
บทบาทของ	-11.0766
ของจริง	-11.0769
ด้าม	-11.077
บนเกาะ	-11.0774
คนเหล่านี้	-11.0775
มีความเห็น	-11.0776
”"	-11.0776
▁คง	-11.078
เอาใจใส่	-11.0782
มีแต่คน	-11.0783
อยู่บ้าง	-11.0784
wan	-11.0784
กระสุนปืน	-11.0785
ส่อ	-11.0786
12.	-11.0786
ถ้าเขา	-11.0787
บางเรื่อง	-11.079
land	-11.0793
ชุดใหญ่	-11.0794
นายสุเทพ	-11.0797
เคยได้ยิน	-11.08
ในเอเชีย	-11.0801
เลี้ยว	-11.0802
พี่เค้า	-11.0802
;...	-11.0803
เสื้อยืด	-11.0805
ช่องว่าง	-11.0806
แต่สุดท้าย	-11.0806
จะออกมา	-11.0807
ตัวเลือก	-11.0809
แต่ก็มี	-11.081
หรือแม้แต่	-11.081
2546	-11.0813
▁ไม่รู้	-11.0813
ung	-11.0814
ลูกๆ	-11.0815
พวงมาลัย	-11.0815
ให้ทุกคน	-11.0817
คนที่มี	-11.0818
ราชินีนาถ	-11.0819
กรณีนี้	-11.0819
หอบ	-11.0819
ก์	-11.082
her	-11.082
เลิกกัน	-11.0822
ng	-11.0823
ปกครองส่วน	-11.0824
อ่านแล้ว	-11.0824
like	-11.0825
ฟุ	-11.0827
สู้กับ	-11.0829
บรรพบุรุษ	-11.0829
จะสร้าง	-11.0829
ที่จะได้	-11.083
อยู่ในช่วง	-11.0832
สารสนเทศ	-11.0832
กลุ่มคน	-11.0834
ผู้ว่าการ	-11.0835
ตลอดทั้ง	-11.0837
จุดประสงค์	-11.0837
ง่ายขึ้น	-11.0839
นักฟุตบอล	-11.0841
เพราะอะไร	-11.0842
อยู่ภายใน	-11.0844
สูบบุหรี่	-11.0848
ประสิทธิ์	-11.0849
ตรวจพบ	-11.085
ยยย	-11.0851
การเตรียม	-11.0851
ว่าผม	-11.0852
อเตอร์ไซค์	-11.0852
บางราย	-11.0853
▁ถ้าเป็น	-11.0855
ต้นฉบับ	-11.0855
เงินเฟ้อ	-11.0855
าธิบดี	-11.0856
สุภ	-11.0858
ของวันที่	-11.0858
มานี่	-11.0862
เป๊กผลิตโช	-11.0862
สักวัน	-11.0862
ไทยรักไทย	-11.0863
ปรับขึ้น	-11.0864
ใช้กฎหมาย	-11.0866
คนรวย	-11.0867
ออฟฟิศ	-11.0872
ม้วน	-11.0875
ซะที	-11.0875
-5	-11.088
oh	-11.088
กานต์	-11.0881
💓	-11.0882
สรรพ	-11.0885
เดวิด	-11.0886
สําหรับฉัน	-11.0888
มาสู่	-11.0896
เวียน	-11.0897
ลูกศิษย์	-11.09
อุโมงค์	-11.0901
กรณ์	-11.0905
ยุบพรรค	-11.0907
ผู้ทรง	-11.0907
ทางทหาร	-11.0907
แพร	-11.0908
ทุนนิยม	-11.0908
พจน์	-11.0909
ใช่มั๊ย	-11.0909
เพื่อรักษา	-11.091
▁บางคน	-11.091
สปท	-11.0912
must	-11.0915
กลุ่มหนึ่ง	-11.0916
ฉันไป	-11.0916
ลีน	-11.0919
▁นั่นเป็น	-11.092
👏	-11.092
สักครั้ง	-11.0921
ไปกว่า	-11.0922
ผู้ถูก	-11.0922
ของชุมชน	-11.0923
ไปเรื่อย	-11.0927
เบลเยียม	-11.0928
เธอเป็น	-11.093
เวส	-11.093
เสมอภาค	-11.093
ลดราคา	-11.0933
อยากทราบว่	-11.0934
mer	-11.0935
หิ้ว	-11.0937
life	-11.0939
สันดาน	-11.0939
ตลาดหุ้น	-11.0942
แระ	-11.0942
ส่งข้อความ	-11.0944
ลั	-11.0951
93	-11.0953
และนํา	-11.0953
ห้	-11.0954
ต้นแบบ	-11.0955
มันอาจจะ	-11.0957
สอด	-11.0959
ยังมีการ	-11.096
คนตาย	-11.0961
สําคัญมาก	-11.0961
เข็มขัด	-11.0962
เพียงใด	-11.0965
อ่อ	-11.0965
ริเริ่ม	-11.0966
1.2	-11.0967
เผชิญกับ	-11.0968
มอบหมาย	-11.0968
กลับจาก	-11.0971
ภายหลังจาก	-11.0971
จับตัว	-11.0972
190	-11.0972
ซึง	-11.0972
ชื่น	-11.0974
บารมี	-11.0975
ดีกว่านี้	-11.0975
มาพบ	-11.0977
ี่	-11.0977
▁อาจจะ	-11.0978
สิ้นเชิง	-11.0978
ก็ใช้	-11.098
อะครับ	-11.0981
จบการศึกษา	-11.0981
เป็นภาษา	-11.0981
ณะรัฐมนตรี	-11.0981
ตัวผู้	-11.0982
เขียนว่า	-11.0984
การขยาย	-11.0985
เลยล่ะ	-11.0986
คนทั่วไป	-11.0988
ช่วงเทศกาล	-11.0989
เอกราช	-11.0989
เต็ง	-11.0991
ก็แล้วแต่	-11.0991
pop	-11.0992
ก็จะเป็น	-11.0994
ary	-11.0995
โปรตีน	-11.0999
พื้นเมือง	-11.1
เห็นหน้า	-11.1
โชคดีที่	-11.1001
ความผิดฐาน	-11.1003
มารี	-11.1005
สตางค์	-11.1006
cho	-11.1007
ลุ่ม	-11.1008
คนเก่ง	-11.1009
ตั้งแต่เวล	-11.1018
เกือบทุก	-11.1023
อํานาจรัฐ	-11.1024
แอฟริกา	-11.1025
มาอีก	-11.1025
กิโล	-11.1026
หาซื้อ	-11.1026
เต็มใจ	-11.1026
ได้ตาม	-11.1027
หลายวัน	-11.1027
ให้มีความ	-11.1028
พน	-11.1031
วีร	-11.1032
ดด	-11.1032
เนิน	-11.1033
ในอัตรา	-11.1036
7,	-11.1036
ที่ศาล	-11.1039
ซุน	-11.104
เร็วๆนี้	-11.104
เล่	-11.1041
ae	-11.1042
▁บอก	-11.1042
***	-11.1043
มีพฤติกรรม	-11.1043
ระนอง	-11.1044
ถ้าใคร	-11.1044
ชัยนาท	-11.1045
ฆาตกรรม	-11.1045
โหดร้าย	-11.1045
ชายแดนใต้	-11.1047
ลาม	-11.1048
วีซ่า	-11.1049
บริหารส่วน	-11.1051
อ่อนโยน	-11.1053
ใช้เครื่อง	-11.1054
แถ	-11.1055
รัศมี	-11.1057
ที่เราจะ	-11.1061
ไปเอา	-11.1063
07	-11.1063
งอ	-11.1063
ิ้ง	-11.1064
สาบาน	-11.1064
เละ	-11.1068
ท่าที	-11.1068
วันพุธ	-11.1069
ชื่อของ	-11.107
อาจไม่	-11.107
เพลิงไหม้	-11.107
ถึงขนาด	-11.1071
แสดงถึง	-11.1071
ส่งตัว	-11.1072
ที่จะใช้	-11.1073
สภานิติ	-11.1074
ชี้ว่า	-11.1077
io	-11.1077
▁ชื่อ	-11.1078
คะแนนเสียง	-11.1078
เป็นไง	-11.1079
ไปขาย	-11.108
โตร	-11.1083
บางทีก็	-11.1087
จันท	-11.1088
ในชุด	-11.1089
แบ่งออก	-11.1091
ลอบ	-11.1092
จันทร	-11.1095
ทํามาหากิน	-11.1097
เราทํา	-11.1102
โคลน	-11.1104
กองกลาง	-11.1104
ทศ	-11.1105
พุ่งชน	-11.1106
เพ็ญ	-11.1106
ได้อ่าน	-11.1108
นับว่า	-11.1109
แวว	-11.111
ใหม่ที่	-11.111
ถ้ามัน	-11.111
สังเคราะห์	-11.1113
แอลกอฮอล์	-11.1115
▁และเมื่อ	-11.112
อย่างมีป	-11.112
ทะเลสาบ	-11.1121
บางคนก็	-11.1122
รด	-11.1123
เหมืองแร่	-11.1125
ผูกพัน	-11.1128
ผมเคย	-11.1129
เราอยาก	-11.1129
วงษ์สุวรรณ	-11.113
ในป่า	-11.113
บช	-11.1131
มะม่วง	-11.1137
เร็วขึ้น	-11.1142
เริ่มมี	-11.1145
พระพุทธ	-11.1148
ซีดี	-11.1148
ฆาตกร	-11.115
น้อยๆ	-11.115
สาธารณชน	-11.1151
พวกที่	-11.1151
ส่วนประกอบ	-11.1154
แม่ฮ่องสอน	-11.1158
การพนัน	-11.1159
ซะอีก	-11.1161
คณิตศาสตร์	-11.1162
อืม	-11.1164
ฝ้าย	-11.117
จัดเตรียม	-11.117
ปรกติ	-11.1171
ได้มากกว่า	-11.1172
ที่แสดง	-11.1173
แต่หลังจาก	-11.1174
เห็นได้ว่า	-11.1174
จัดอันดับ	-11.1176
เคร่งครัด	-11.1178
ซิง	-11.1179
ไพ่	-11.118
เสถียร	-11.118
ให้เกิดการ	-11.1187
เข้าไปดู	-11.1187
แขนยาว	-11.1187
▁อ้าว	-11.1191
ทําได้ดี	-11.1191
ทําประตู	-11.1194
ate	-11.1195
เฟร	-11.1199
ยกให้	-11.1199
ฉันได้	-11.1202
ท้องที่	-11.1203
ได้ยาก	-11.1205
ขององค์กร	-11.1205
ดาวรุ่ง	-11.1207
เหม็น	-11.1208
เจี๊ยบ	-11.1208
ด้อย	-11.1209
วี่	-11.1215
ความชอบ	-11.1215
โข	-11.1217
ปิยะ	-11.1221
ความกังวล	-11.1228
เธอร์แลนด์	-11.1229
---	-11.1229
บอกเลยว่า	-11.123
ste	-11.1232
ห้อย	-11.1232
เเค่	-11.1234
ยิม	-11.1234
port	-11.1235
อีกเรื่อง	-11.1236
	-11.1238
ของกองทัพ	-11.1239
50%	-11.1239
เพื่อนํา	-11.124
โดยระบุว่า	-11.124
·	-11.1242
ทรัพยากรธร	-11.1242
big	-11.1244
ปั	-11.1245
ทวิตเตอร์	-11.1245
เทวดา	-11.1245
อึ้ง	-11.1247
เขาต้อง	-11.1249
จัดให้มี	-11.1249
ชีวิตอยู่	-11.1251
ปิศาจแดง	-11.1252
14.	-11.1252
นัท	-11.1252
กัว	-11.1258
อรุณ	-11.126
cat	-11.1263
เป็นอาหาร	-11.1265
คิดได้	-11.1267
จนจบ	-11.1268
การซื้อ	-11.127
ซิก	-11.127
ิ้ว	-11.1271
ในบาง	-11.1271
ของบุคคล	-11.1272
หยด	-11.1275
win	-11.1278
ปภ	-11.1278
เอาจริง	-11.1279
มันยัง	-11.1279
จ่าฝูง	-11.1282
กับมัน	-11.1286
มาว่า	-11.1286
▁ที่จริง	-11.1286
ท่านประธาน	-11.1287
อัม	-11.1288
ทํามา	-11.1288
first	-11.1288
เพื่อจะได้	-11.129
any	-11.1293
พท	-11.1293
รวมกับ	-11.1297
ไม่จริง	-11.1298
เทศบาลนคร	-11.1301
น้ําหอม	-11.1304
มันมา	-11.1305
เสน	-11.1308
ดีเอ็นเอ	-11.1309
ขนาดสินค้า	-11.131
ger	-11.1311
ไม่เกี่ยว	-11.1312
ต้องอาศัย	-11.1314
วิศวกร	-11.1315
▁เรื่องนี้	-11.1316
ทางวิชาการ	-11.1317
อยู่บริเวณ	-11.1317
ทุกชนิด	-11.1319
ผมอยาก	-11.132
สมัยที่	-11.1321
inbkk	-11.1322
09.00	-11.1322
เมื่อกี้	-11.1323
แบบว่า	-11.1323
เช้านี้	-11.1325
ประมาณนี้	-11.1326
เข้าชม	-11.1327
ใช้กําลัง	-11.1327
รายวัน	-11.1328
น้อ	-11.1329
จะกิน	-11.1332
เราจะได้	-11.1332
ทางราชการ	-11.1332
ลก	-11.1332
101	-11.1333
เข้าข้าง	-11.1334
ในฐานะที่	-11.1336
หยาบ	-11.1337
กาญจน	-11.1338
แมนยู	-11.1339
บรรยายไทย	-11.134
กี่คน	-11.1343
ให้ใคร	-11.1343
ทํานา	-11.1349
โฮม	-11.1353
ไส	-11.1354
ไม่สน	-11.1356
mv	-11.1357
วีระ	-11.1359
สัปดาห์นี้	-11.1359
music	-11.136
แฟร์	-11.136
เรื่อย	-11.1363
สนามกีฬา	-11.1364
นายวิษณุ	-11.1368
130	-11.1368
ต้องเอา	-11.137
แง่	-11.137
จงใจ	-11.137
ร้าง	-11.1371
ปัญหาการ	-11.1374
ii	-11.1378
ร้องขอ	-11.138
กลิ่นหอม	-11.1381
ทวง	-11.1382
จะเข้ามา	-11.1384
ทิว	-11.1387
แบบเดิม	-11.1387
หากมีการ	-11.1388
ชนิดนี้	-11.1389
เพลิดเพลิน	-11.1391
น้ํายา	-11.1394
ไทยพีบีเอส	-11.1394
0฿	-11.1394
เมื่อเทียบ	-11.1395
วิหาร	-11.1397
วิก	-11.1397
▁ขณะเดียว	-11.1399
tr	-11.14
เฮลิคอปเตอ	-11.1401
col	-11.1402
ง่ายกว่า	-11.1405
อินทร์	-11.1406
สักครู่	-11.1409
ส่วนรวม	-11.141
ไปนอน	-11.141
เกลียดชัง	-11.141
สลด	-11.1411
ในฤดูกาล	-11.1411
ซื่อ	-11.1414
ชะลอ	-11.1416
ของปี	-11.1417
แต่มันก็	-11.1417
ซึ่งขณะนี้	-11.1417
รู้ไหม	-11.1417
หน่อยสิ	-11.1418
อินทรีย์	-11.1419
ไม่ลง	-11.1421
ประกันภัย	-11.1421
อายัด	-11.1422
▁ได้ค่ะ	-11.1422
สักการะ	-11.1423
▁ล่าสุด	-11.1423
เจ้าถิ่น	-11.1425
มีผลต่อ	-11.1429
color	-11.143
หวังว่าจะ	-11.143
ติดใจ	-11.143
วาร์	-11.143
สองปี	-11.1431
ทั้งยัง	-11.1433
้องวงจรปิด	-11.1433
จริงๆแล้ว	-11.144
คล้ายกัน	-11.1442
ice	-11.1443
รัม	-11.1443
ไทม์	-11.1445
พนัน	-11.1446
ผสมผสาน	-11.1447
over	-11.1448
ไปข้างหน้า	-11.1449
หลอดเลือด	-11.1449
แม่เหล็ก	-11.1451
ฉก	-11.1453
เชื่อใจ	-11.1454
ยื่นฟ้อง	-11.1455
ืด	-11.1455
ให้ทํา	-11.1455
งัย	-11.1456
ได้ให้	-11.1456
ในทะเล	-11.1457
ครั้น	-11.1458
ไว้กับ	-11.1461
ปลอก	-11.1461
ner	-11.1463
กรง	-11.1464
ผมรู้สึก	-11.1464
่ย	-11.1464
ทั่วถึง	-11.1466
ในสนาม	-11.1466
ห้างสรรพ	-11.1471
สนทนา	-11.1473
ฟังก์ชัน	-11.1476
ลําพัง	-11.1477
หรืออะไร	-11.1479
ชดใช้	-11.148
มีเนื้อหา	-11.1481
แฟ้ม	-11.1483
ยุง	-11.1488
ใช้ชื่อ	-11.1491
ใหญ่โต	-11.1491
ใส่เสื้อ	-11.1492
มาเที่ยว	-11.1494
ทรงคุณวุฒิ	-11.1495
ครึ่งหนึ่ง	-11.1497
><	-11.1498
เข้าเมือง	-11.1499
พักอาศัย	-11.1501
apple	-11.1501
dm	-11.1501
ช่วยลด	-11.1502
เอ๊ย	-11.1502
ยินยอม	-11.1504
ใหม่ของ	-11.1506
รอให้	-11.1506
เเบบ	-11.1506
▁กลุ่ม	-11.1507
จะเห็นว่า	-11.1509
ที่ดู	-11.1509
ของอังกฤษ	-11.1509
สนุกมาก	-11.151
ิ่น	-11.151
เครื่องแบบ	-11.1511
เถอะครับ	-11.1511
๊อก	-11.1513
วิต	-11.1514
php	-11.1514
คนนอก	-11.1515
บรรทัด	-11.1518
สลาก	-11.152
ตามแผน	-11.1524
หั่น	-11.1524
▁http	-11.1524
ᅲ	-11.1524
มาเพื่อ	-11.1527
โคร	-11.1527
ประชาไท	-11.153
บรรณาธิการ	-11.1532
ตอนล่าง	-11.1532
การเข้า	-11.1534
แวะมา	-11.1535
ข่	-11.1536
สาขาวิชา	-11.1538
▁ตัวอย่าง	-11.1538
92	-11.1547
ไม่ไหวแล้ว	-11.1547
tion	-11.1548
มาส่ง	-11.1548
ลําลอง	-11.1548
ชี้แจงว่า	-11.1549
ol	-11.1552
มีการจัด	-11.156
องค์ชาย	-11.1563
เบียด	-11.1563
ร็อก	-11.1563
นารี	-11.1564
นายสมชาย	-11.1565
อัจฉริยะ	-11.1566
เป็นภาพ	-11.1566
จะเรียก	-11.1567
คู่มือ	-11.1568
การประกอบ	-11.1569
ประยุกต์	-11.1569
พิจิตร	-11.157
mr	-11.1571
ตระเวน	-11.1571
ในคัมภีร์	-11.1571
แพะ	-11.1573
พระธรรมกาย	-11.1574
โรงพัก	-11.1574
ขาดความ	-11.1575
vs	-11.1575
แม้ว่าจะ	-11.1578
เก็บข้อมูล	-11.1579
กู้เงิน	-11.1579
online	-11.1581
เป็นชาย	-11.1582
แต่คน	-11.1585
เที่ยงคืน	-11.1585
แซ่	-11.1586
เมื่อมี	-11.1586
ที่กรุง	-11.1587
จะทรง	-11.1587
ริด	-11.1589
นางงาม	-11.1592
หมดไป	-11.1594
ลําน้ํา	-11.1596
-30	-11.1597
ไปหาหมอ	-11.1599
ใครบางคน	-11.1603
ละเลย	-11.1603
กับตัวเอง	-11.1608
ปรีชา	-11.161
ems	-11.1611
ไปเอง	-11.1613
✨	-11.1613
😄	-11.1613
ล้วนๆ	-11.1613
พวกนาย	-11.1615
ขว้าง	-11.1615
พีช	-11.1616
ุ่ย	-11.1617
ฑ	-11.1619
อนามัย	-11.1619
ใช้บังคับ	-11.1619
โด้	-11.1619
plus	-11.1622
ไม่สะดวก	-11.1622
สงฆ์	-11.1624
03	-11.1625
การเติบโต	-11.1625
ฮอต	-11.1626
เล่าให้ฟัง	-11.1627
sh	-11.1631
ฉันชอบ	-11.1631
ไม่มา	-11.1632
เห็นต่าง	-11.1634
เทิร์น	-11.1634
นมัสการ	-11.1635
จะพิจารณา	-11.1635
good	-11.1636
แม้จะมี	-11.164
รมชาติและส	-11.1641
ไม่ได้อยู่	-11.1644
มันส์	-11.1646
และยังมี	-11.1647
รถติด	-11.1648
มากๆเลย	-11.1648
ก็รู้สึก	-11.1651
น่ะสิ	-11.1656
ผู้สร้าง	-11.1656
เป็นวัน	-11.1656
เยอะกว่า	-11.1657
แรงงานไทย	-11.1658
ดอ	-11.1659
ตูน	-11.1662
food	-11.1664
นิวซีแลนด์	-11.1666
ดั่ง	-11.1669
อ้อน	-11.1669
พระเจ้าทรง	-11.1671
13.	-11.1677
แมง	-11.1678
ัน	-11.168
ให้น้อง	-11.1681
บอกคุณ	-11.1683
เพลงที่	-11.1686
ลงไปใน	-11.1687
รีย์	-11.1689
สูญ	-11.1689
เอ๋	-11.1691
,2.	-11.1693
ใช้แรงงาน	-11.1698
นับจากวัน	-11.1698
อื่นที่	-11.1699
ถ่ายทํา	-11.17
ง่ายดาย	-11.1701
ทันทีที่	-11.1703
▁สว	-11.1704
ย้อนกลับไป	-11.1705
บางกอก	-11.1708
ระบายอากาศ	-11.1708
จนเกิด	-11.171
เข้าใกล้	-11.171
้ก	-11.1711
หลวงปู่	-11.1713
ยังคงเป็น	-11.1713
หมัก	-11.1716
▁ดร	-11.1717
เหยียด	-11.1718
เกรงใจ	-11.1719
สําคัญคือ	-11.1719
มีประชาชน	-11.1721
รับบท	-11.1723
ลาง	-11.1728
เป็นผู้ชาย	-11.1728
ซึ่งก็	-11.1729
-9	-11.173
smiling	-11.1732
จินดา	-11.1734
sd	-11.1734
เคาะ	-11.1736
เนชั่นแนล	-11.1737
คริสต์มาส	-11.1737
ความเครียด	-11.1738
พวกเขาก็	-11.174
เรียกได้ว่	-11.1744
81	-11.1744
เทอม	-11.1745
นั	-11.1748
อาบ	-11.1748
รอบตัว	-11.1749
และบริการ	-11.1749
▁ไม่เคย	-11.1751
เจ้าสาว	-11.1752
แต่เพียง	-11.1753
คู่กัน	-11.1753
อาณานิคม	-11.1754
อันไหน	-11.1754
อสังหาริม	-11.1756
.50	-11.1758
แต่งกาย	-11.1759
ชอ	-11.1761
ถ้าเกิด	-11.1762
▁แต่เรา	-11.1762
ควรทํา	-11.1763
เลนส์	-11.1763
โปแลนด์	-11.1763
กะเหรี่ยง	-11.1765
สบายดี	-11.1765
สอนให้	-11.1765
ตัดต่อ	-11.1767
ประเทศอื่น	-11.1769
ลวด	-11.1769
รั้ง	-11.1772
ประกบ	-11.1772
รู้มั้ย	-11.1772
นิติศาสตร์	-11.1774
กับสิ่งที่	-11.1778
ไม๊	-11.1779
ติดกัน	-11.1781
ขอดู	-11.1784
มหัศจรรย์	-11.1785
ในฐานะผู้	-11.1786
ขณะที่นาย	-11.1788
สมยศ	-11.179
บอม	-11.179
สาระสําคัญ	-11.179
ตกอยู่ใน	-11.1792
คู่รัก	-11.1792
เข้าออก	-11.1794
เอียง	-11.1794
กําชับ	-11.1795
der	-11.1796
ไม่พูด	-11.1796
พระธรรม	-11.1797
กอน	-11.18
ยี่สิบ	-11.1801
มิลลิเมตร	-11.1803
แนน	-11.1804
สบู่	-11.1805
ทัศน์	-11.1807
▁พบ	-11.1808
ตึง	-11.1808
เคลื่อนย้า	-11.1809
ผู้หญิงคน	-11.1809
สีม่วง	-11.1809
ในสภาพ	-11.1809
หลังๆ	-11.1809
ไปเยี่ยม	-11.181
สมาร์ทโฟน	-11.181
มนตรี	-11.1812
ชัวร์	-11.1812
ไม่ต้องไป	-11.1816
ก็พยายาม	-11.1816
พระพุทธรูป	-11.1821
แหล่งข่าว	-11.1822
ปิ้ง	-11.1824
ฬ	-11.1824
pr	-11.1826
ยูฟ่า	-11.1828
ก็ไม่เคย	-11.1829
ies	-11.183
พู	-11.1832
รอม	-11.1832
ต้องการจะ	-11.1832
อะไรก็ได้	-11.1834
จากจังหวะ	-11.1834
กระเด็น	-11.1837
แก่ประชาชน	-11.1839
มิด	-11.184
วิ่งหนี	-11.1846
ผุด	-11.1846
สาธุๆๆ	-11.1846
ในโอกาส	-11.1847
▁ฉะนั้น	-11.1849
ในแบบ	-11.185
เป็นทหาร	-11.1851
โรจน์	-11.1852
หุ้นส่วน	-11.1853
ได้ทรง	-11.1854
อะไรคะ	-11.1854
สุขุมวิท	-11.1855
pri	-11.1856
ในทุกๆ	-11.1859
เข้ากัน	-11.1863
▁ไม่มีอะไร	-11.1864
๑๐	-11.1866
มาขาย	-11.1867
ทักมา	-11.1867
แถวบ้าน	-11.1868
ตรงไปตรงมา	-11.1873
ลิฟอร์เนีย	-11.1874
บ้างคะ	-11.1874
อัพเดท	-11.1874
ไม่กี่วัน	-11.1875
ศาลากลาง	-11.1876
ดีไหม	-11.1879
สาธิต	-11.188
▁ขนาด	-11.1882
อยู่รอด	-11.1883
เข้ารับ	-11.1886
ประหลาดใจ	-11.1887
ตามใจ	-11.1887
การสูญเสีย	-11.189
▁แน่นอน	-11.189
ช่วงบ่าย	-11.1893
แชท	-11.1893
มีสติ	-11.1894
ิ์	-11.1894
มัส	-11.1895
ลอน	-11.1895
สึก	-11.1896
นางฟ้า	-11.1898
ต้องไม่	-11.1899
ชุน	-11.1903
หางาน	-11.1903
เหตุผลว่า	-11.1903
เพดาน	-11.1905
คัม	-11.1907
จู่ๆ	-11.1911
เพชรบูรณ์	-11.1911
ข่าวที่	-11.1912
ยักษ์ใหญ่	-11.1914
night	-11.1914
ให้หน่อย	-11.1914
-10	-11.1915
ทางด่วน	-11.1916
ทําเอง	-11.1918
ทําให้มัน	-11.1921
ลุ่มน้ํา	-11.1923
ผมเป็น	-11.1926
ยุบสภา	-11.1926
▁เ	-11.1926
ราวกับ	-11.1929
ในความเป็น	-11.193
คุ้นเคย	-11.1931
เราก็ต้อง	-11.1933
จิตอาสา	-11.1934
เหมือนคน	-11.1934
มาขอ	-11.1939
ง้อ	-11.1941
led	-11.1943
cu	-11.1944
ec	-11.1944
หรูหรา	-11.1946
ดับเพลิง	-11.1947
แอป	-11.1948
สั่งสอน	-11.195
คุณคง	-11.1952
ลิต	-11.1953
เข้ารับการ	-11.1953
คํานี้	-11.1953
ไปหมดแล้ว	-11.1953
ชนิดหนึ่ง	-11.1956
▁อิ	-11.1957
มันคง	-11.196
เราเคย	-11.1963
กาง	-11.1963
▁ภาพ	-11.1965
เงินฝาก	-11.1965
ปฎิบัติ	-11.1967
sm	-11.1969
น้อม	-11.197
฿	-11.197
ปราจีนบุรี	-11.1972
เทียบเท่า	-11.1972
กระจ่าง	-11.1973
พุ่ม	-11.1973
ก็โดน	-11.1974
ดวล	-11.1974
หลักๆ	-11.1975
อะไรแบบนี้	-11.1976
พุง	-11.1978
กรีซ	-11.1979
▁เช่นเดียว	-11.1981
ศุกร์	-11.1981
สามคน	-11.1981
ตัวเรา	-11.1982
มากว่า	-11.1983
▁เสียง	-11.1984
เร็	-11.1987
แฟนเก่า	-11.1989
ครอบ	-11.1991
ตลอดกาล	-11.1992
ลอด	-11.1993
ตามนโยบาย	-11.1993
ไปนั่ง	-11.1993
ทานอาหาร	-11.1993
2542	-11.1994
rat	-11.1995
แทบทุก	-11.1997
คุ้น	-11.2
เสรีภาพใน	-11.2
เว้ย	-11.2
▁ก่อนจะ	-11.2002
รง	-11.2002
หรือผู้	-11.2005
คงไม่ได้	-11.2006
fo	-11.2006
มาทาน	-11.2018
ไม่เพียง	-11.202
tag	-11.2021
มันเหมือน	-11.2022
มาจนถึง	-11.2022
ไปซะ	-11.2024
หมายเรียก	-11.2024
มันจะเป็น	-11.2025
แกร่ง	-11.2025
ลุกลาม	-11.2027
ร้อนๆ	-11.2027
มุง	-11.2028
ที่ดีขึ้น	-11.2028
ดังนั้นจึง	-11.2029
ก็เคย	-11.203
หาสาเหตุ	-11.2031
ไช	-11.2031
รองนายกฯ	-11.2031
.45	-11.2032
ขอบพระคุณ	-11.2032
blue	-11.2032
ดูแลตัวเอง	-11.2033
บุคลิก	-11.2034
หรือป่าว	-11.2035
ไม่มีคน	-11.2036
ในการใช้	-11.2036
สปีด	-11.2037
series	-11.2037
เป็นหัวหน้	-11.2037
พระคริสต์	-11.2038
กรุณาธิคุณ	-11.2038
ฝ่ายบริหาร	-11.2038
สะดุด	-11.2039
วิชัย	-11.204
ห่างกัน	-11.2043
ความกลัว	-11.2045
ลําดับที่	-11.2047
ไม่จบ	-11.2047
ปัสสาวะ	-11.205
▁ไอ	-11.2051
ฝ่ายปกครอง	-11.2052
แกรนด์	-11.2053
ลด์	-11.2055
หนุ่มสาว	-11.2057
▁อาจ	-11.2057
พั	-11.2061
นัส	-11.2061
ค่าตอบแทน	-11.2062
ช็อต	-11.2062
ยังจะ	-11.2066
คําสอน	-11.2066
ระดับชาติ	-11.2066
ศาลทหาร	-11.2067
การงาน	-11.2069
๋ง	-11.2069
พีค	-11.207
ลดน้ําหนัก	-11.2074
หยาง	-11.2076
ประธานสภา	-11.2076
พิชิต	-11.2077
๊ค	-11.2078
แวดล้อม	-11.2078
การรับรอง	-11.2079
แล้วเหรอ	-11.2079
เอาเปรียบ	-11.2079
▁เอ	-11.2081
เด้	-11.2083
ก็จะไม่	-11.2083
dtac	-11.2084
มีปริมาณ	-11.2084
ผู้เข้า	-11.2085
กับแฟน	-11.2088
ทรี	-11.2088
หลายฝ่าย	-11.2088
ของร้าน	-11.2088
ถ้าผม	-11.2089
เคี้ยว	-11.209
มีศักยภาพ	-11.209
ให้ชัดเจน	-11.2091
ได้จริง	-11.2091
ศุลกากร	-11.2093
พื้นผิว	-11.2093
วิท	-11.2093
หลอน	-11.2096
ชุดใหม่	-11.2101
หาคน	-11.2104
หลายๆคน	-11.2106
196	-11.2106
ละครเรื่อง	-11.2108
เบิกจ่าย	-11.2109
มีผลกระทบ	-11.2109
,1.	-11.2109
เอ็ก	-11.2111
ian	-11.2112
ออมสิน	-11.2113
ปิดล้อม	-11.2115
ทราบชื่อ	-11.2116
9,	-11.2117
ผู้ฝึกสอน	-11.212
ฟาน	-11.212
2007	-11.212
กลายมาเป็น	-11.2122
สมหวัง	-11.2128
▁ไม่เป็นไร	-11.2128
โดยอาศัย	-11.2129
เงินที่	-11.213
เพื่อเพิ่ม	-11.2135
ถนอม	-11.2136
ไห	-11.2136
สิทธิในการ	-11.2136
ั่น	-11.2136
มั่งคั่ง	-11.2137
ปลายเดือน	-11.2138
แม็ก	-11.2138
มาลง	-11.214
10%	-11.2143
จัดซื้อ	-11.2145
▁พูด	-11.2146
อนุสัญญา	-11.2146
โอบ	-11.2147
ที่จะมี	-11.2148
เรซ	-11.2153
ลิงค์	-11.2159
มีการตั้ง	-11.216
ต่อเดือน	-11.2162
ดีเด่น	-11.2163
เกือบจะ	-11.2168
ต้องยอมรับ	-11.2168
จากกลุ่ม	-11.2169
หี	-11.2169
สวดมนต์	-11.2173
กซ์	-11.2174
ทําหน้า	-11.2174
ซาตาน	-11.2174
ชาต	-11.2175
แถวนี้	-11.2175
mat	-11.2176
▁5.	-11.2177
มันทําให้	-11.218
คลาสสิก	-11.2182
อคติ	-11.2182
เทร	-11.2185
เชล	-11.2186
ไม่อยากจะ	-11.2186
การลงโทษ	-11.219
▁กล่าวถึง	-11.219
ห้องเรียน	-11.2192
หวาดกลัว	-11.2193
ุ้ง	-11.2195
ตัวใหญ่	-11.2195
ฉลาม	-11.2195
พูดได้	-11.2196
สําคัญกับ	-11.2197
ง่า	-11.2198
ทุกๆคน	-11.2199
หล	-11.22
มีขนาด	-11.2201
สมการ	-11.2201
ขายได้	-11.2201
ด้านซ้าย	-11.2202
ซึ่งถูก	-11.2204
ราคาแพง	-11.2205
-19	-11.2205
โผ	-11.2207
เก็ต	-11.2208
cy	-11.2208
หลา	-11.2209
▁โอ้ย	-11.2209
สารพิษ	-11.2209
หลงรัก	-11.221
▁เจอ	-11.221
ทอน	-11.2214
เวลานาน	-11.2216
ริง	-11.2217
▁มันไม่ใช่	-11.2218
ไพบูลย์	-11.2218
รอดชีวิต	-11.2218
link	-11.2218
sc	-11.2221
คนดังกล่าว	-11.2221
ไม่ยอมให้	-11.2221
มีเป้าหมาย	-11.2221
พอมี	-11.2225
มรสุม	-11.2228
▁ถ้าเธอ	-11.2228
▁ตอนที่	-11.2229
เขาคง	-11.223
สถานีวิทยุ	-11.223
บิดามารดา	-11.223
ทางการค้า	-11.2231
ลดความ	-11.2231
show	-11.2231
100,000	-11.2232
เลสเตอร์	-11.2233
การวางแผน	-11.2234
เป็นหนี้	-11.2236
▁ชาวบ้าน	-11.2236
คล้ายคลึง	-11.2237
▁จง	-11.2238
อ่างเก็บ	-11.2241
อ่ะครับ	-11.2242
บวกกับ	-11.2242
พระเยซูทรง	-11.2242
ลงบน	-11.2242
view	-11.2243
กระต่าย	-11.2244
น่าดู	-11.2245
ท้ายที่สุด	-11.2247
ให้การว่า	-11.2248
ลําเลียง	-11.2248
ขึ้นจาก	-11.2249
พ่อของ	-11.2249
▁ฉันก็	-11.225
การส่ง	-11.2251
นั่งอยู่	-11.2252
ให้กับผู้	-11.2253
ส้มตํา	-11.2256
เป็นคํา	-11.2257
ต้นเดือน	-11.2257
ถึงแม้จะ	-11.2259
ยึดครอง	-11.226
รม	-11.226
คดีที่	-11.2261
คลาส	-11.2261
วัตต์	-11.2265
ลงชื่อ	-11.2266
ทํางานที่	-11.2266
วาส	-11.2268
แบ่งแยก	-11.2269
▁สงสัย	-11.2271
เนปาล	-11.2274
สายไฟ	-11.2278
กลืน	-11.2279
โอกาสที่	-11.2279
สูท	-11.228
เกษียณ	-11.2282
▁อ่าน	-11.2283
ทําให้การ	-11.2285
ชนะเลิศ	-11.2285
ัส	-11.2291
ในชั้น	-11.2293
ระหว่างทาง	-11.2294
และเยาวชน	-11.2294
อมร	-11.2295
ติดอาวุธ	-11.2298
▁ตอนนั้น	-11.2299
จัดเต็ม	-11.2299
2006	-11.23
กับคนอื่น	-11.2302
▁ลุง	-11.2304
exo	-11.2304
▁ชุด	-11.2309
▁คุณต้อง	-11.2311
ของใคร	-11.2312
มาตั้ง	-11.2313
นัดหมาย	-11.2313
ประชาชาติ	-11.2316
ที่สวยงาม	-11.2318
เกิดอาการ	-11.2318
คนสุดท้าย	-11.2319
มอบตัว	-11.2321
บนโลก	-11.2322
ออส	-11.2326
เครื่องดื่	-11.2326
3-0	-11.2327
ทําเอา	-11.2327
คร้า	-11.2331
ms	-11.2331
ดีเจ	-11.2332
อาจต้อง	-11.2333
▁ซื้อ	-11.2336
อะไรก็ตาม	-11.2337
แล้วไม่	-11.2338
กับทาง	-11.2339
โกล	-11.2341
แลง	-11.2342
เป็นเพลง	-11.2347
ร่างพระราช	-11.2348
กระชาก	-11.2349
มีนโยบาย	-11.2351
ด้านหนึ่ง	-11.2352
หายไปไหน	-11.2353
ไม่สบาย	-11.2353
ได้นะคะ	-11.2354
หอพัก	-11.2355
เป็นรอง	-11.2358
อูเบอร์	-11.2358
สารวัตร	-11.2358
่ํา	-11.2359
แยกแยะ	-11.236
cd	-11.2361
ใบเสร็จ	-11.2362
เป็นวันที่	-11.2362
สิคะ	-11.2363
ถู	-11.2363
▁เรามี	-11.2365
นี่นา	-11.2365
กําลังทํา	-11.2366
ไม่ค่อยดี	-11.2367
สะใจ	-11.237
16.00	-11.2372
บรู	-11.2373
พี่เขา	-11.2373
เอาเอง	-11.2373
พุทธศักราช	-11.2375
แต่เราก็	-11.2376
ลังเล	-11.2376
▁มันมี	-11.2376
รวมทั้งการ	-11.2377
จะรู้สึก	-11.2378
โน่น	-11.2381
ผลลัพธ์	-11.2382
ควง	-11.2385
ห่างไกล	-11.2389
ประจําการ	-11.2389
best	-11.239
เลย์	-11.2394
tan	-11.2396
post	-11.2397
ที่แตกต่าง	-11.2398
ตามแนว	-11.2399
fu	-11.2406
เก็บตัว	-11.2407
ภูมิใจไทย	-11.2408
มากแล้ว	-11.2408
คุณได้	-11.2408
ึม	-11.2408
พานิช	-11.2409
เรด	-11.2409
ต้องห้าม	-11.241
มันก็จะ	-11.2414
samsung	-11.2417
จะจัด	-11.2418
กระป๋อง	-11.2419
ออกมาเป็น	-11.242
ส่งผลต่อ	-11.2421
เดาว่า	-11.2425
ข้าวสาร	-11.2426
ฮั่น	-11.2426
rs	-11.2431
[3]	-11.2431
บางพื้นที่	-11.2432
ข้าวของ	-11.2433
แทบไม่	-11.2433
โสม	-11.2434
จากกรณี	-11.2435
เมื่อมีการ	-11.2436
มร	-11.2436
แล้วจ้า	-11.2438
บัญชาการ	-11.2439
▁เพลง	-11.2442
คนแก่	-11.2448
ซุ่ม	-11.2449
ลําโพง	-11.245
กันครับ	-11.2451
ปากีสถาน	-11.2453
ก็รู้ว่า	-11.2455
14.00	-11.2456
มีการปรับ	-11.2458
ช้างศึก	-11.2459
เขียนบท	-11.246
res	-11.2464
ได้ออกมา	-11.2464
มีรถ	-11.2466
▁ฉันซื้อ	-11.2467
ฉันกําลัง	-11.2467
ที่นาย	-11.2469
สิ้นปี	-11.247
จิตวิทยา	-11.247
ณ์	-11.2472
ช้ํา	-11.2475
lan	-11.2475
,3.	-11.2475
ทหารพม่า	-11.2476
แหละครับ	-11.2477
กรรมการผู้	-11.248
โลโก้	-11.248
อนุกรรมการ	-11.2481
เขียนไว้	-11.2484
ภาควิชา	-11.2484
โหน	-11.2486
เขาเป็นคน	-11.2487
non	-11.2487
-1	-11.2488
pc	-11.2489
2544	-11.2492
เก็บของ	-11.2492
▁แม้จะ	-11.2493
11.00	-11.2493
พึ่งพา	-11.2494
ผู้อพยพ	-11.2494
จนกลายเป็น	-11.2495
สองครั้ง	-11.2495
ผู้ประท้วง	-11.2496
4)	-11.2496
ph	-11.2497
▁หมอ	-11.25
ในช่วงนี้	-11.2502
ยอมแพ้	-11.2502
จะดี	-11.2505
▁มีใคร	-11.2505
but	-11.2506
กระเทียม	-11.2509
อุส	-11.2511
▁พบว่า	-11.2512
น้ําทะเล	-11.2513
โง	-11.2515
2545	-11.2516
ขุ่น	-11.2517
เมนต์	-11.2522
ฟุตซอล	-11.2524
ค่าตัว	-11.2524
ท่านจะ	-11.2525
▁ฉันต้อง	-11.2528
มีกลุ่ม	-11.253
หลายราย	-11.2531
อห	-11.2531
ภรรยาของ	-11.2532
ที่สนใจ	-11.2533
1/	-11.2534
ในพิธี	-11.2535
อึ	-11.2535
รู้สึกผิด	-11.2536
ที่ผ่าน	-11.2536
fan	-11.2537
ในภายหลัง	-11.2539
ต้องทํางาน	-11.2542
สวนสัตว์	-11.2542
2.0	-11.2543
▁*	-11.2543
นานมาก	-11.2544
จูน	-11.2544
▁พระเจ้า	-11.2545
sha	-11.2545
ธาน	-11.2545
fb	-11.2547
ออกคําสั่ง	-11.2548
รูปนี้	-11.2548
ที่ใช้ใน	-11.2549
แพลน	-11.2549
กันอีก	-11.2551
กระดาน	-11.2551
เจล	-11.2553
ชาวยิว	-11.2553
ลิม	-11.2553
จ้าว	-11.2555
คุมตัว	-11.2556
ดวงจันทร์	-11.2557
สมชาย	-11.2557
หากคุณ	-11.2558
นว	-11.2559
ลงจาก	-11.256
นี้มัน	-11.2561
อาญา	-11.2562
จ์	-11.2562
orn	-11.2563
110	-11.2563
มีแผน	-11.2565
ear	-11.2565
กี่ครั้ง	-11.2566
คนพวกนี้	-11.2567
words	-11.2568
ยุ่งกับ	-11.2568
ปัจจุบันมี	-11.257
ริ่ง	-11.257
ถ้ําหลวง	-11.2571
ริบ	-11.2572
แฝด	-11.2572
เราอาจ	-11.2572
ฟังแล้ว	-11.2575
เขย	-11.2576
เป็นประเทศ	-11.2578
eyes	-11.258
พาร์	-11.2581
ได้พบกับ	-11.2584
▁เมื่อถาม	-11.2584
อ้าว	-11.2585
นําเอา	-11.2585
เพื่อนําไป	-11.2586
พารา	-11.2586
ความยากจน	-11.2586
เพอร์	-11.2587
อาหรับ	-11.2587
โดยทาง	-11.2588
ล้านปอนด์	-11.2589
ซวย	-11.259
ในวง	-11.2591
เราคิดว่า	-11.2592
กูจะ	-11.2593
กรีก	-11.2594
เรื่องปกติ	-11.2594
แคท	-11.2594
คาดหมาย	-11.2596
โฟร์	-11.2597
ชันสูตร	-11.2597
สะพาย	-11.2601
real	-11.2602
ก็จะได้	-11.2603
ชําระเงิน	-11.2604
ไม่รวม	-11.2606
มงกุฎ	-11.2607
ze	-11.261
ence	-11.261
กลาย	-11.261
มาเยอะ	-11.2612
san	-11.2612
เมื่อช่วง	-11.2613
ตรงกัน	-11.2614
หมื่นบาท	-11.2615
ต้นเหตุ	-11.2616
ผมใช้	-11.2618
ไมตรี	-11.2619
ผศ	-11.2619
ให้มากขึ้น	-11.262
(3)	-11.262
ไปร่วม	-11.2622
สิ่งนั้น	-11.2622
▁แต่พอ	-11.2624
บูรณะ	-11.2624
▁ถ้าไม่	-11.2625
จงรักภักดี	-11.2628
ท้าว	-11.2628
สัมมนา	-11.2629
รับไม่ได้	-11.263
รู้สึกดี	-11.2631
มัวแต่	-11.2632
ถึงวันที่	-11.2637
ds	-11.2639
ห้ามใช้	-11.264
อย่าทํา	-11.264
แฟนสาว	-11.2641
ใคร่	-11.2641
ตามด้วย	-11.2642
เขตเทศบาล	-11.2643
เฮ้ย	-11.2645
น้ําซุป	-11.2646
ปรากฎ	-11.2648
ไปมา	-11.2648
หรา	-11.2648
ป์	-11.2648
ได้ตั้ง	-11.2652
คัดค้านการ	-11.2652
โฟม	-11.2654
การพูด	-11.2655
และระบบ	-11.2657
twitter	-11.2657
้ะ	-11.2662
แม็ค	-11.2665
แหล่ะ	-11.2667
▁อย่างน้อย	-11.2667
หลายรอบ	-11.2668
ดีใจที่	-11.2669
พื้นฐานของ	-11.2671
มือปืน	-11.2672
ติดอยู่	-11.2675
แต่ความ	-11.2675
คาร์บอน	-11.2675
นายวร	-11.2678
นายบุญ	-11.2679
พยายามทํา	-11.268
สิ้นเดือน	-11.268
เมะ	-11.268
เบลล่า	-11.2681
จะเจอ	-11.2682
ต่างคนต่าง	-11.2685
เล่นกัน	-11.2685
ดาวเคราะห์	-11.2685
เราคง	-11.2685
nct	-11.2687
ทําท่า	-11.2688
กุน	-11.2688
เทรน	-11.269
มุ่งเน้น	-11.2692
ที่ติด	-11.2694
สิบปี	-11.2695
งอก	-11.2696
เทรนด์	-11.2698
ไม่ยาก	-11.2698
log	-11.27
จุฬาฯ	-11.2702
happy	-11.2702
ลึกซึ้ง	-11.2704
กับประเทศ	-11.2705
sun	-11.2706
	-11.2706
ที่ดีกว่า	-11.2707
พระบิดา	-11.2707
รายย่อย	-11.2707
โดยผู้	-11.2708
เป็นปกติ	-11.2709
service	-11.271
▁มันไม่	-11.2711
ให้ตาย	-11.2711
จริงแล้ว	-11.2714
ความอดทน	-11.2715
5+	-11.2716
▁บางครั้ง	-11.2716
ถูกทําร้าย	-11.2717
มอล	-11.2718
มีให้เลือก	-11.2718
กุม	-11.2719
แก่น	-11.272
ื้	-11.272
กับน้อง	-11.272
รื้อถอน	-11.2724
แต่ทําไม	-11.2725
วิตามิน	-11.2725
เป็นรัฐบาล	-11.2727
เอ็ด	-11.2728
น่ารักจัง	-11.2729
เฒ่า	-11.273
ปุ๊บ	-11.273
บง	-11.2733
ิ้นพระชนม์	-11.2733
เป็นชาว	-11.2733
ลึกลับ	-11.2735
หมิ่นประมา	-11.2736
บอกเลย	-11.274
กันใน	-11.274
ว่าต้อง	-11.2744
น้อยใจ	-11.2744
mac	-11.2744
▁ฉันอยาก	-11.2745
การลด	-11.2745
จุดหมาย	-11.2747
เนื้อที่	-11.2748
ทาวน์	-11.2749
ฮาน	-11.2749
นต์	-11.2751
วิสาหกิจ	-11.2751
สูญหาย	-11.2752
ได้แสดง	-11.2754
บัล	-11.2755
high	-11.2755
ได้สร้าง	-11.2755
สาธารณภัย	-11.2757
ลืมไป	-11.2757
ก่อนว่า	-11.2763
3-1	-11.2766
▁ควร	-11.2767
อุตรดิตถ์	-11.2767
การันตี	-11.2768
160	-11.2768
ดิว	-11.277
ต่อต้านการ	-11.277
ร้าว	-11.2772
จะหมด	-11.2773
pra	-11.2774
การบังคับ	-11.2775
ค่านิยม	-11.2775
ผู้ชนะ	-11.2776
จนเป็น	-11.2777
เด็กที่	-11.2777
ในภาษา	-11.2778
และอาจ	-11.2781
กาญจน์	-11.2783
ควรจะเป็น	-11.2785
ชาวบ้านที่	-11.2785
▁‘	-11.2786
แต่งเพลง	-11.2786
ดาวน์โหลด	-11.2787
เข้าท่วม	-11.2788
ไพร่	-11.2789
ร่อน	-11.2789
ฝืน	-11.2789
ขายดี	-11.2789
โนน	-11.2789
แต่สําหรับ	-11.279
นักสืบ	-11.279
ไปตรวจ	-11.2791
สิ้นสุดลง	-11.2792
ว่าจ้าง	-11.2793
้บ	-11.2797
จะมีความ	-11.2798
กลีบ	-11.2798
แก้ตัว	-11.2799
ism	-11.2799
ตั้งอยู่ใน	-11.28
ศอก	-11.2801
cl	-11.2802
เวียร์	-11.2804
เลยต้อง	-11.2805
เศรษฐี	-11.2808
แรงกดดัน	-11.2808
ฟีฟ่า	-11.281
ชะตา	-11.281
บาร์เซโลนา	-11.2813
เซอร์ไพรส์	-11.2814
ตรึง	-11.2814
ทั้งตัว	-11.2817
8,	-11.2818
วิวัฒนาการ	-11.282
นั่นมัน	-11.2821
มาร์ก	-11.2822
คิน	-11.2824
วิจิตร	-11.2825
อุบล	-11.2825
▁อาจารย์	-11.2826
ในเมืองไทย	-11.2827
ที่นํา	-11.2828
จะฆ่า	-11.2829
ชาวประมง	-11.2832
สินค้าที่	-11.2832
คําปรึกษา	-11.2833
▁หากคุณ	-11.2834
ประสูติ	-11.2835
ชีว	-11.2836
มีรอย	-11.2838
ไม่หมด	-11.2838
คําพูดของ	-11.2838
เลส	-11.2839
ซัล	-11.284
ได้เข้ามา	-11.2842
ความทนทาน	-11.2843
แคมเปญ	-11.2846
เดินตาม	-11.2852
สี่แยก	-11.2854
คอลัมน์	-11.2855
อยู่นี่	-11.2856
จุดอ่อน	-11.2857
ก็ได้นะ	-11.2857
ที่ควร	-11.2859
ของคนอื่น	-11.286
bit	-11.286
▁ช่วง	-11.2862
จัดหางาน	-11.2866
ค่อน	-11.2868
▁เมื่อวาน	-11.287
ดีแทค	-11.2871
ประเภทนี้	-11.2872
อีเมล	-11.2874
แจกจ่าย	-11.2874
อากาศยาน	-11.2876
สีส้ม	-11.2878
มาลา	-11.2878
จะเข้าใจ	-11.2883
ทีมสุดท้าย	-11.2883
ฉันรู้สึก	-11.2884
กันด้วย	-11.2885
เดนมาร์ก	-11.2885
นวนิยาย	-11.2885
รับได้	-11.2886
นั่นก็	-11.2888
เมอ	-11.2889
อยู่ตรงนี้	-11.2891
5000	-11.2892
what	-11.2895
ทําสัญญา	-11.2895
คุณครู	-11.2895
6,000	-11.2896
อยู่อย่าง	-11.2896
เพราะไม่มี	-11.2897
ช่วงเย็น	-11.2897
fit	-11.2897
เสียอีก	-11.2897
ยานพาหนะ	-11.2898
แสงสว่าง	-11.2899
มหาสารคาม	-11.29
ภาวนา	-11.2902
การตัดสิน	-11.2903
ไม่แพ้	-11.2908
💜	-11.2909
ที่ประชาชน	-11.2909
สุริย	-11.291
สังเกตุ	-11.2913
สังคมนิยม	-11.2914
กันค่ะ	-11.2915
ระกันสังคม	-11.2915
ต่อศาล	-11.2917
กุหลาบ	-11.2917
กูล	-11.2919
gt	-11.2919
อากาศร้อน	-11.292
ชําระหนี้	-11.2921
ลอตเตอรี่	-11.2921
มีพระ	-11.2922
ฟิค	-11.2922
ร่องรอย	-11.2923
ผู้ขับขี่	-11.2923
เลก	-11.2925
เอย	-11.2925
▁พรุ่งนี้	-11.2927
บัด	-11.293
นานแค่ไหน	-11.2931
chan	-11.2932
โดม	-11.2932
ข้อกําหนด	-11.2936
นิทาน	-11.2937
เซ่	-11.2937
นักมวย	-11.2938
...&'	-11.2941
เข้าเรียน	-11.2942
จุดโทษ	-11.2943
ละเมิดสิ	-11.2944
โรคจิต	-11.2945
/2	-11.2945
ให้ทราบ	-11.2947
ถ้าเธอ	-11.2948
กับบริษัท	-11.2949
เขาบอก	-11.2951
กันทั้ง	-11.2953
อยู่ดีๆ	-11.2955
ชัง	-11.2957
ก็คงไม่	-11.2958
กําลังมองห	-11.2962
ได้เริ่ม	-11.2963
โอะ	-11.2967
วันสุดท้าย	-11.2968
และภาค	-11.2968
xl	-11.2969
ทํากัน	-11.2971
มาฝาก	-11.2973
หาว่า	-11.2974
ป๋อ	-11.2975
วีดีโอ	-11.2976
run	-11.2976
เมื่อเช้า	-11.2976
กับข้าว	-11.2978
ดุสิต	-11.2979
สมาชิกสภา	-11.298
นักบุญ	-11.298
bra	-11.2982
▁หนุ่ม	-11.2982
file	-11.2982
คอมเม้น	-11.2984
tour	-11.2985
แบคทีเรีย	-11.2987
▁ซึ่งจะ	-11.299
เสียว	-11.299
รุ่นน้อง	-11.2991
▁ฉันรู้ว่า	-11.2991
ครรภ์	-11.2993
เกียรติยศ	-11.2994
ชั้นล่าง	-11.2994
ใช่มั้ยคะ	-11.2995
ทั้งคืน	-11.2996
ัท	-11.2996
การรณรงค์	-11.2997
สมาคมกีฬา	-11.2998
ใหม	-11.2999
gl	-11.3001
สําราญ	-11.3006
5-6	-11.3006
คล	-11.3008
ยับ	-11.3008
▁ถึงแม้	-11.3008
จืด	-11.3013
กันน้ํา	-11.3013
ว่าเค้า	-11.3018
โดยได้	-11.3019
🔥	-11.302
ภาพจาก	-11.3021
แพน	-11.3022
รถบัส	-11.3022
เติมเต็ม	-11.3023
▁ฟังนะ	-11.3023
ข้อนี้	-11.303
bar	-11.303
ต้องระวัง	-11.3033
hy	-11.3034
อะไรมาก	-11.3034
0-2	-11.3035
บะหมี่	-11.3036
ยิงปืน	-11.3036
ไปด้วยความ	-11.3038
ติง	-11.304
บาด	-11.3041
มีคุณค่า	-11.3042
ที่จะไป	-11.3043
เขาว่า	-11.3045
les	-11.3045
ระยะสั้น	-11.3045
เขาจึง	-11.3046
สะเทือน	-11.3048
พระวิญญาณ	-11.3049
ใครมา	-11.305
▁กระทั่ง	-11.3051
รีสอร์ท	-11.3052
สิ่งหนึ่ง	-11.3055
คุมทีม	-11.3056
18.00	-11.3057
ปว	-11.3059
เดินผ่าน	-11.306
ey	-11.3061
ในส่วนที่	-11.3062
ชาวอังกฤษ	-11.3062
แวร์	-11.3062
ผิวขาว	-11.3063
distributi	-11.3064
ที่จริง	-11.3065
นี้ด้วย	-11.3068
ก็แล้วกัน	-11.3069
ถ่วง	-11.3071
คนจีน	-11.3072
เอ็ง	-11.3075
ได้ร่วม	-11.3076
คุณอาจ	-11.3077
ของตํารวจ	-11.3077
สีทอง	-11.3078
คุณมี	-11.3084
▁คิด	-11.3084
โอเพ่น	-11.3085
ห้องนอน	-11.3086
include	-11.3086
ที่สถานี	-11.3087
ม่าย	-11.3089
ตามประมวล	-11.3089
สมมติ	-11.309
ศาลอุทธรณ์	-11.3091
การติดต่อ	-11.3091
รู้เลยว่า	-11.3091
จําพวก	-11.3091
และขอให้	-11.3094
ได้ประตู	-11.3098
peck	-11.3098
เขาต้องการ	-11.3099
▁พวกมัน	-11.3102
เบ้	-11.3102
อุด	-11.3103
▁ตร	-11.3103
เป็นเหยื่อ	-11.3103
ตื่นตัว	-11.3107
น้ําตาไหล	-11.3111
ที่ไม่เคย	-11.3112
คําขอ	-11.3112
เข้าหา	-11.3113
ตามหลัง	-11.3114
นุ่น	-11.3114
สเตเดียม	-11.3116
ซึ่งได้รับ	-11.3118
แฮะ	-11.3118
วิสัยทัศน์	-11.3119
ธงชาติ	-11.312
เมิง	-11.3121
หน่อยนะคะ	-11.3122
หาวิธี	-11.3125
วงกลม	-11.3125
ดีเยี่ยม	-11.3125
โธ	-11.3126
ชี้ให้เห็น	-11.3126
ของธนาคาร	-11.3127
ืน	-11.3127
มาเยี่ยม	-11.3128
กีดกัน	-11.3128
ในวันพรุ่ง	-11.3129
ฉันทํา	-11.3132
รักเธอ	-11.3132
▁หา	-11.3136
หาญ	-11.3136
โอ้ย	-11.3136
มีเจตนา	-11.3138
ผมเอง	-11.3139
มีประชากร	-11.314
30,000	-11.314
รปภ	-11.314
เพร	-11.3141
ุน	-11.3143
ข่าวว่า	-11.3144
งานเลี้ยง	-11.3144
พิน	-11.3146
ไปต่อ	-11.3146
ใช้สิทธิ์	-11.3147
คมช	-11.3149
บู๊	-11.3149
ยุคสมัย	-11.3149
มนุษยชาติ	-11.315
ข้างเคียง	-11.3151
ผัน	-11.3152
สันติวิธี	-11.3152
ตามระเบียบ	-11.3154
คําตัดสิน	-11.3154
9%	-11.3156
tor	-11.3159
ทราบข่าว	-11.316
อภัย	-11.3161
เด็กน้อย	-11.3161
แต่คุณ	-11.3161
ตึงเครียด	-11.3165
ฎอัยการศึก	-11.3167
แบบใหม่	-11.3168
ตง	-11.3169
ได้รับเงิน	-11.317
สตูดิโอ	-11.317
รวงกลาโหม	-11.3171
พัชร	-11.3171
0.0	-11.3171
ตอนเย็น	-11.3173
ภาคภูมิใจ	-11.3176
ความคิดของ	-11.3177
อีกนะ	-11.3178
อย่าเอา	-11.318
หมดอายุ	-11.318
ตนจึง	-11.3185
}	-11.3186
เซอ	-11.3189
ทํางานอยู่	-11.3191
รุด	-11.3194
ไม่เหลือ	-11.3195
มีรายงาน	-11.3196
เลยหรอ	-11.3196
กฎหมายที่	-11.3196
ว่าจะมี	-11.3196
ุนิยมวิทยา	-11.3198
รวมกลุ่ม	-11.3199
วิ่งไป	-11.3201
สุดท้ายก็	-11.3202
มาหลาย	-11.3202
ชิ้นนี้	-11.3202
▁เจ้าของ	-11.3203
เปื้อน	-11.3203
ว่าเราจะ	-11.3206
อริ	-11.3206
สักคน	-11.3207
กิ๊ก	-11.3209
หมื่นล้าน	-11.3211
เล่นๆ	-11.3212
ยื้อ	-11.3212
มองข้าม	-11.3216
ข้อสอบ	-11.3219
ยินดีกับ	-11.3222
ผมทํา	-11.3223
มีน้ํา	-11.3223
หีบ	-11.3224
was	-11.3228
วาจา	-11.3231
แผนงาน	-11.3232
▁ช่วงนี้	-11.3233
มากนะ	-11.3233
บูรพา	-11.3233
ออสเตรีย	-11.3233
และขอ	-11.3234
จะเข้าไป	-11.3236
นิน	-11.3236
กฟผ	-11.3237
ด้	-11.3239
สภาฯ	-11.324
เทีย	-11.324
ที่ไม่ดี	-11.3241
นําพา	-11.3241
▁ก่อนหน้า	-11.3242
เหลืออีก	-11.3242
หาเรื่อง	-11.3243
บ่อยมาก	-11.3243
แหง	-11.3244
รับการ	-11.3245
ดํารงอยู่	-11.3246
ของสถาบัน	-11.3247
แม่สอด	-11.3249
ร์ด	-11.3249
fer	-11.3249
แหม	-11.325
ไม่ครบ	-11.3252
คนสวย	-11.3253
1-3	-11.3255
ดีน	-11.3255
๒๔	-11.3256
ของโครงการ	-11.3257
การวาง	-11.3257
ตีเสมอ	-11.3258
ว้าว	-11.3267
เป็นมิตร	-11.3271
ประเดิม	-11.3275
จมน้ํา	-11.3277
อาร์เจนติน	-11.328
ใครๆ	-11.328
แกร	-11.328
อธิปไตย	-11.3281
ให้ลูกค้า	-11.3282
windows	-11.3282
น้ําเสียง	-11.3283
▁ดีใจ	-11.3285
ตั	-11.3285
ก็พูด	-11.3287
เพียร	-11.3288
ส่วนของ	-11.3288
เป็นบุคคล	-11.3289
จัดการน้ํา	-11.329
เชน	-11.3291
ide	-11.3291
ซัม	-11.3294
ในกรุงเทพฯ	-11.3294
ไคร	-11.3295
มะลิ	-11.3296
เพราะฉัน	-11.3297
สถิต	-11.3297
แล้วนี่	-11.3298
ศุ	-11.3299
วอชิงตัน	-11.3299
รถถัง	-11.3299
+662	-11.3301
รมต	-11.3302
เก็บเกี่ยว	-11.3302
▁รัฐบาล	-11.3304
ตอนเหนือ	-11.3306
photo	-11.331
▁ปกติ	-11.331
ข้อเสนอแนะ	-11.3311
ลาภ	-11.3311
ไปว่า	-11.3313
ชาตินิยม	-11.3313
อธิ	-11.3314
ประเด็นนี้	-11.3315
กลางดึก	-11.3316
ให้ตัวเอง	-11.3316
รอบสุดท้าย	-11.3316
จระเข้	-11.3317
จิตวิญญาณ	-11.3317
กิต	-11.3318
-6	-11.3318
การต่อต้าน	-11.3319
เพิ่มเป็น	-11.3321
เร็วมาก	-11.3321
ถูกฆ่า	-11.3321
ข้าจะ	-11.3322
สารคดี	-11.3323
อร่อยดี	-11.3324
คอร์รัปชัน	-11.3324
แล้วไง	-11.3324
โยกย้าย	-11.3325
จะขึ้น	-11.3326
เพราะคน	-11.3327
ข้อดี	-11.3328
มองดู	-11.3328
ถีบ	-11.3329
สิงโต	-11.333
ทรยศ	-11.3331
ละมุน	-11.3332
น้ําเงิน	-11.3335
ปนเปื้อน	-11.3335
ไหนคะ	-11.3336
กล่าวด้วย	-11.3337
เชื้อชาติ	-11.3339
ปี้	-11.3339
218491	-11.334
โลกนี้	-11.3341
รักชาติ	-11.3342
ตระหนักถึง	-11.3343
ลู่	-11.3343
และอุปกรณ์	-11.3344
หย่อน	-11.3345
ช่วยอะไร	-11.3345
ห่วงใย	-11.3348
บนพื้น	-11.3349
มากเลยค่ะ	-11.335
ผมกําลัง	-11.3351
ิง	-11.3352
ance	-11.3353
บ่อน	-11.3354
ทางปัญญา	-11.3356
ในการจัด	-11.3358
สายลับ	-11.3359
ทานข้าว	-11.336
เอ๊ะ	-11.336
คลั่ง	-11.3361
ในเครือ	-11.3363
ทิน	-11.3363
ผู้ตรวจการ	-11.3364
ของวง	-11.3367
ล้านเหรียญ	-11.3368
ตามไป	-11.3372
มากก	-11.3372
wifi	-11.3373
็ง	-11.3373
เธอไป	-11.3374
คบกับ	-11.3374
ò	-11.3375
ทางนี้	-11.3377
ค่าโดยสาร	-11.3377
โปรโมท	-11.3377
▁ดิฉัน	-11.338
ตัวเขา	-11.3381
ไม่ขึ้น	-11.3381
▁190	-11.3382
park	-11.3384
รายหนึ่ง	-11.3388
มัสยิด	-11.3389
ปริญญาโท	-11.339
ฉันไม่อยาก	-11.339
เคียง	-11.3391
ชรา	-11.3393
เป็นระยะ	-11.3394
เจรจากับ	-11.3394
อิล	-11.3396
เขากําลัง	-11.3397
นับแต่	-11.3398
แคมป์	-11.3401
เป็นชื่อ	-11.3402
ตราบใดที่	-11.3403
ช่วยแนะนํา	-11.3403
book	-11.3403
13.00	-11.3404
่อย	-11.3405
ในท้องถิ่น	-11.3405
สุดสัปดาห์	-11.3405
-7	-11.3406
การทําลาย	-11.3408
ยีน	-11.3409
คณะสงฆ์	-11.3409
ณิช	-11.3411
ทท	-11.3414
ฝุ่นละออง	-11.3416
ฤดูกาลนี้	-11.3416
▁สาว	-11.3417
พันธุกรรม	-11.3421
ทุกตัว	-11.3421
ั่ว	-11.3422
เดินขบวน	-11.3423
เบิร์ก	-11.3426
ฉี่	-11.3427
▁ฉันชอบ	-11.3429
แง้	-11.343
เชื่อใน	-11.343
ฮอร์โมน	-11.3433
เมกา	-11.3433
บริเวณที่	-11.3436
tnc	-11.3436
▁และจะ	-11.3437
ปลอดภัยของ	-11.3438
วงดนตรี	-11.3439
ด้านขวา	-11.344
ุ่น	-11.344
มันดี	-11.344
ของผู้หญิง	-11.3441
16.	-11.3441
ตลอดเลย	-11.3442
หน่ะ	-11.3442
des	-11.3443
เมษ	-11.3444
รู้กัน	-11.3444
ดั	-11.3444
มาบอก	-11.3447
กระหน่ํา	-11.345
ใช่ไหมครับ	-11.3453
คิดมาก	-11.3453
15.00	-11.3454
ร่วมด้วย	-11.3454
from	-11.3454
ไปบ้าง	-11.3455
เตือนภัย	-11.3456
อีกหน่อย	-11.3458
ท่านก็	-11.3459
ราศี	-11.3459
อยากลอง	-11.346
miss	-11.3465
▁แต่มัน	-11.3468
ความชื้น	-11.3468
sy	-11.3468
กาม	-11.3468
มีจุด	-11.3469
อยู่ตรง	-11.3469
เสียที	-11.3469
1:	-11.347
กําลังดี	-11.347
ที่อาศัย	-11.3472
เราใช้	-11.3473
ช่วงนั้น	-11.3475
มากไป	-11.3477
▁คุณคิดว่า	-11.3478
น้ําดื่ม	-11.3479
อนุสรณ์	-11.348
แสนคน	-11.348
วาฬ	-11.3481
ทีมที่	-11.3481
ระทึก	-11.3483
ซึ่งสามารถ	-11.3483
sms	-11.3485
▁ผมไม่	-11.3485
รัชทายาท	-11.3487
นายวิ	-11.3488
ขับขี่	-11.3488
เหตุระเบิด	-11.349
iz	-11.3492
รับชม	-11.3493
เรือประมง	-11.3495
han	-11.3496
แล่น	-11.3498
กลับเข้า	-11.35
เคยไป	-11.3501
พฤติการณ์	-11.3501
bl	-11.3501
ได้เปลี่ยน	-11.3503
ผมต้องการ	-11.3507
ยุทธการ	-11.3507
ตกงาน	-11.3507
ลมหายใจ	-11.3507
ธนบุรี	-11.3508
ทั้งหมดที่	-11.351
17.	-11.3511
สิ่งที่ฉัน	-11.3512
ฉ้อโกง	-11.3517
อะไรนะ	-11.3518
ม่าน	-11.3521
กระตุ้นให้	-11.3522
ผู้ถือหุ้น	-11.3524
การรับรู้	-11.3524
คําถามที่	-11.3524
กรมอุต	-11.3525
แชมเปียนส์	-11.3525
ความกว้าง	-11.3526
ขิง	-11.3527
▁เธอจะ	-11.3527
อํา	-11.3528
จอมพล	-11.353
ปทุม	-11.3532
กเทศมนตรี	-11.3532
นําตัวส่ง	-11.3533
จะนําไปสู่	-11.3534
?,"	-11.3535
โรแมนติก	-11.3535
ข้อพิพาท	-11.3539
ไปในทาง	-11.354
ถือหุ้น	-11.354
ไม่ได้ใช้	-11.3541
ให้แม่	-11.3542
ตูด	-11.3543
ยังมีชีวิต	-11.3543
ธงชัย	-11.3545
ในวัย	-11.3546
ขอบใจ	-11.3547
.44	-11.3547
▁ในที่สุด	-11.3547
5)	-11.3548
กัส	-11.3548
ข้อกฎหมาย	-11.3549
ไม่เลือก	-11.3549
จนเกินไป	-11.355
คือคนที่	-11.3551
พัฒนาสังคม	-11.3551
group	-11.3552
ถูกนํามา	-11.3555
น่ารักๆ	-11.3556
ใช้อาวุธ	-11.3556
ขึ้นใน	-11.3556
สายตรวจ	-11.3558
	-11.3558
โมงเย็น	-11.356
ค้นคว้า	-11.3561
คอส	-11.3563
ลดการ	-11.3563
กระดุม	-11.3565
จริงหรือ	-11.3565
อะไรมา	-11.3568
ไม่สมควร	-11.357
เป็	-11.3572
อยากเจอ	-11.3574
โบนัส	-11.3575
mas	-11.3576
คาทอลิก	-11.3576
สังฆราช	-11.3577
เตะต่อยหม	-11.3578
ตามข้อ	-11.3578
ยูทูป	-11.3578
powerbuy	-11.3578
มาลอง	-11.3579
ในการผลิต	-11.3581
tro	-11.3582
nd	-11.3582
ผมจึง	-11.3586
เถอะค่ะ	-11.3588
แล้ววว	-11.359
เกรง	-11.3591
มีบางอย่าง	-11.3592
bambam	-11.3593
หน่วยกู้ภั	-11.3593
ตัวแปร	-11.3594
พากย์	-11.3595
sis	-11.3595
.2560)	-11.3595
หนวด	-11.3596
คลอ	-11.3597
js	-11.3598
kan	-11.3599
จริงๆค่ะ	-11.3599
วิษณุ	-11.3601
เอาเรื่อง	-11.3602
▁♀	-11.3602
▁นัก	-11.3603
ขอเป็น	-11.3603
อิสรภาพ	-11.3604
ให้พวกเขา	-11.3604
central	-11.3606
ประกอบพิธี	-11.3606
corphdr	-11.3607
จากไป	-11.3607
หนังเรื่อง	-11.3607
▁สุดยอด	-11.3609
🎉	-11.3609
กระเพาะ	-11.361
ได้ไหมคะ	-11.3611
▁มันคือ	-11.3611
เปลือง	-11.3611
ได้ดู	-11.3612
ฮัม	-11.3616
อันที่จริง	-11.3616
สุดท้ายที่	-11.3616
▁ส่วนการ	-11.3616
ปส	-11.3616
กับเด็ก	-11.3617
จากรัฐบาล	-11.3618
ไม่ได้แล้ว	-11.3619
อื่นใด	-11.362
เอดส์	-11.3622
เดี๋ยวจะ	-11.3625
ให้ดีขึ้น	-11.3625
เสนา	-11.3625
อะไรคือ	-11.3626
จะเพิ่ม	-11.3627
เพื่อนที่	-11.3628
/0	-11.3628
ข้อสงสัย	-11.3629
▁สงสาร	-11.3629
เรื้อรัง	-11.3634
ร้านกาแฟ	-11.3635
สมัชชา	-11.3636
ประชุมคณะ	-11.3637
เคอร์	-11.364
อีกไม่นาน	-11.3641
ใช้ไฟฟ้า	-11.3641
ว่าพวกเขา	-11.3643
จะลง	-11.3648
โม่	-11.3648
ขาสั้น	-11.3648
จะรู้ว่า	-11.3648
สนิทกัน	-11.3649
▁การที่	-11.365
ที่เข้า	-11.3651
เพาะ	-11.3651
มีฐานะ	-11.3651
บ้างมั้ย	-11.3651
ไซต์	-11.3652
ดีเซล	-11.3654
วิธีนี้	-11.3655
คุณหนู	-11.3655
จึงรีบ	-11.3656
ที่จะช่วย	-11.3657
ชนเผ่า	-11.3658
ช่วงเดือน	-11.366
หุ	-11.3663
เป็นสัตว์	-11.3664
ละก็	-11.3665
เป็นหนึ่ง	-11.3665
อันนั้น	-11.3667
กระหม่อม	-11.3667
ดุล	-11.3668
ที่นอน	-11.3668
ให้ชาวบ้าน	-11.3669
พระครู	-11.3669
ผมไม่เคย	-11.367
ใกล้จะ	-11.367
หัวใจของ	-11.3671
	-11.3672
สิทธิพิเศษ	-11.3674
ข้อสรุป	-11.3674
โจ๊ก	-11.3676
ที่สนามบิน	-11.3678
ด้าย	-11.368
หน้าด้าน	-11.368
ning	-11.3681
หลายเดือน	-11.3681
เคยใช้	-11.3683
ัณ	-11.3685
เดี๋ยวก็	-11.3686
ล้านนา	-11.3687
เห็นความ	-11.3688
ใดที่	-11.3688
ใช้วิธีการ	-11.3688
▁ช่าง	-11.3689
🤔	-11.369
ไวท์	-11.369
ตัวเมือง	-11.369
เฮง	-11.3691
พระอาทิตย์	-11.3692
ปิดบัง	-11.3694
▁ผล	-11.3695
มีอาชีพ	-11.3695
ระเบียง	-11.3697
ได้ตลอด	-11.3698
โครงข่าย	-11.3699
od	-11.3699
กิ้ง	-11.3701
ถ่าน	-11.3702
รมช	-11.3703
ขม	-11.3704
เจียง	-11.3707
ไอร์แลนด์	-11.3709
ไม่ต้องมา	-11.371
▁ผมไม่ได้	-11.371
ขีปนาวุธ	-11.3711
ฉันรู้	-11.3712
ชุดที่	-11.3712
ผู้รู้	-11.3712
containing	-11.3715
ประกาศให้	-11.3719
ตัวไหน	-11.3721
น้ําลาย	-11.3721
แค่อยาก	-11.3721
ต่อความ	-11.3722
ครุ	-11.3723
อย่างแรง	-11.3723
ลิด	-11.3723
การปล่อย	-11.3725
สดๆ	-11.3726
หอประชุม	-11.3726
ได้ไหมครับ	-11.3727
sea	-11.3727
ที่ผิด	-11.3728
off	-11.3728
ดิ่ง	-11.373
การตีความ	-11.3733
ความเคารพ	-11.3733
โป๊	-11.3733
คนสําคัญ	-11.3735
ขึ้นอีก	-11.3737
ฆ่าคน	-11.3739
ภิ	-11.3739
ัดแทงเข่า	-11.374
หลังถูก	-11.3741
รีบไป	-11.3741
เก็บรักษา	-11.3741
สามเหลี่ยม	-11.3743
ข้าวเหนียว	-11.3744
ปัญหาของ	-11.3744
ปลูกสร้าง	-11.3745
ริโอ	-11.3745
เต็	-11.3747
ญาญ่า	-11.3751
นิติบุคคล	-11.3751
และพยายาม	-11.3753
อันตรายต่อ	-11.3754
โรส	-11.3755
ทั้งเรื่อง	-11.3756
▁ถึงแม้ว่า	-11.3756
สําเนียง	-11.376
พัฒน	-11.3764
สะดวกในการ	-11.3765
เพื่อไป	-11.3768
แต่วันนี้	-11.377
เหลว	-11.3771
เด็กเล็ก	-11.3773
เธอร์	-11.3773
นักกิจกรรม	-11.3774
white	-11.3774
ไพศาล	-11.3774
ซากิ	-11.3775
คุง	-11.3775
▁เครื่อง	-11.3775
++	-11.3777
คือเรา	-11.3777
▁มีอะไร	-11.3777
งานเขียน	-11.3778
ประกาย	-11.3778
แปรง	-11.3779
ยุคใหม่	-11.378
ุล	-11.3781
ศิริราช	-11.3782
สัด	-11.3783
ไม่สําเร็จ	-11.3784
หมั้น	-11.3785
ใจเย็นๆ	-11.3786
หวน	-11.3786
วิทยาเขต	-11.3788
ฝ่ายชาย	-11.3788
ชั่วร้าย	-11.3788
ฉันอยาก	-11.3789
กาน	-11.3793
iv	-11.3793
อยู่ในห้อง	-11.3794
สิทธิของ	-11.3797
ดัด	-11.3797
ช่างภาพ	-11.3798
ต้องดูแล	-11.3799
เผือก	-11.3799
เปิดฉาก	-11.38
บอกเธอ	-11.38
ไลท์	-11.3801
แรงมาก	-11.3804
คืนเงิน	-11.3804
ธุระ	-11.3805
ไม่แปลก	-11.3805
มีดังนี้	-11.3805
-0	-11.3807
รั้งที่สอง	-11.3807
เป็นอีก	-11.3809
ก็ขอให้	-11.3811
✅	-11.3811
ไงล่ะ	-11.3813
เขาพูด	-11.3813
▁ถ้าฉัน	-11.3814
คือสิ่งที่	-11.3815
พอง	-11.3815
140	-11.3815
ราคาไม่แพง	-11.3815
จะเป็นผู้	-11.3817
ขนาดกลาง	-11.3818
กระทะ	-11.3818
อยู่เหนือ	-11.382
สมกับ	-11.3824
นั่งรถ	-11.3827
ผีแดง	-11.3827
ไฟป่า	-11.3828
จานุเบกษา	-11.3828
เป็นครู	-11.3828
โดยอ้างว่า	-11.3829
แข่งขันกีฬ	-11.383
ออกซิเจน	-11.3831
เชิญชวน	-11.3833
โดยมีการ	-11.3834
เอี่ยม	-11.3835
cor	-11.3836
เรื่องอื่น	-11.3839
▁•	-11.3839
นเรศวร	-11.3839
เคลื่อนตัว	-11.384
อัป	-11.384
mc	-11.3841
ting	-11.3842
พหลโยธิน	-11.3842
ตนก็	-11.3845
ความคิดที่	-11.3846
บางครั้งก็	-11.3847
ึ่ง	-11.3848
▁แล้วคุณ	-11.3849
ยังพบ	-11.385
ซุ้ม	-11.3851
เธอยัง	-11.3852
ถ้าฉัน	-11.3852
💛	-11.3857
ฟฟ	-11.3858
ของหวาน	-11.3861
ถูกกว่า	-11.3861
ทั	-11.3862
ram	-11.3862
ริว	-11.3863
สําหรับใส่	-11.3864
่ม	-11.3865
และปริมณฑล	-11.3865
สมาพันธ์	-11.3865
ใหญ่มาก	-11.3867
hr	-11.3867
ที่เขียน	-11.3869
6%	-11.3871
ดีด	-11.3872
เสนอข่าว	-11.3874
กว่านั้น	-11.3874
ให้พี่	-11.3879
ผู้ตัดสิน	-11.3885
เยี่ยมชม	-11.3885
สังเกตเห็น	-11.3888
ผลดี	-11.3889
ให้ท่าน	-11.3889
ไหนจะ	-11.389
ก็จบ	-11.389
สมเกียรติ	-11.3893
inbox	-11.3894
อิฐ	-11.3895
ออกมาแล้ว	-11.3896
card	-11.3897
ออกเดินทาง	-11.3897
การเดิน	-11.3897
ที่ผลิต	-11.3898
ย้ายค่าย	-11.39
ซอฟต์แวร์	-11.3901
เป็นไงบ้าง	-11.3902
gra	-11.3903
สักนิด	-11.3903
หนอน	-11.3903
จรวด	-11.3905
เว่อร์	-11.3905
ทุกคนต้อง	-11.3908
อากาศเย็น	-11.3908
ทางประวัติ	-11.391
เบญจ	-11.3912
▁ยังไม่	-11.3914
การค้นหา	-11.3914
ชาวญี่ปุ่น	-11.3914
บรม	-11.3915
ครั้งละ	-11.3919
เลือน	-11.3919
ขอพร	-11.3919
สําหรับคุณ	-11.392
▁รับ	-11.392
ฉันมี	-11.3921
บริบท	-11.3921
ไม่บอก	-11.3924
คือความ	-11.3924
ฟื้นตัว	-11.3925
ลัดกระทรวง	-11.3926
ควบ	-11.3927
ภาพของ	-11.3927
สมุทร	-11.3929
2/	-11.393
เวีย	-11.3931
ทําไง	-11.3931
ara	-11.3931
ต่อชั่วโมง	-11.3932
เมื่อถึง	-11.3932
ทางตะวันตก	-11.3936
เดม	-11.3936
ลงนามใน	-11.3937
ใช้ระบบ	-11.3939
พลาง	-11.394
ดีจัง	-11.3941
ดีใจมาก	-11.3942
ไม่ใช่ว่า	-11.3943
ให้ช่วย	-11.3945
.2560	-11.3945
โวยวาย	-11.3947
สมาน	-11.3947
ทรุด	-11.3948
วัคซีน	-11.3949
รุ้ง	-11.3949
4.5	-11.395
กันต่อไป	-11.3951
บางนา	-11.3951
นายธน	-11.3953
หรือเป็น	-11.3954
ลิบ	-11.3957
bmw	-11.3959
แพ็กเกจ	-11.3959
ฉันเห็น	-11.3961
จะได้เห็น	-11.3963
▁ทําไมไม่	-11.3965
ในทีม	-11.3965
ตกค้าง	-11.3967
ได้คะแนน	-11.3968
ที่คอย	-11.3969
คุณภาพสูง	-11.397
ที่ชื่อ	-11.397
ถึงจุด	-11.3972
แอส	-11.3973
ต่อม	-11.3974
เข้าบ้าน	-11.3974
สาวไทย	-11.3975
ประธานกรรม	-11.3976
6)	-11.3976
โต้แย้ง	-11.3976
กลับสู่	-11.3978
191	-11.398
กฤต	-11.398
▁สุดท้าย	-11.3981
ไล่ล่า	-11.3982
สัตว์น้ํา	-11.3983
ยกเลิกการ	-11.3985
เคลม	-11.3987
▁ส่วนที่	-11.3988
.2561	-11.3989
▁แถม	-11.3994
เป็นนายกฯ	-11.3995
ทางวิทยา	-11.3997
ทหารเรือ	-11.3997
ลีโอ	-11.3999
เนื่อง	-11.3999
ริมฝีปาก	-11.3999
ซึ่งตน	-11.3999
เทส	-11.4
รถที่	-11.4
เธอต้อง	-11.4001
ซะแล้ว	-11.4002
ตอก	-11.4002
ว่าเขาจะ	-11.4003
ชาเขียว	-11.4003
โรคมะเร็ง	-11.4004
จะลดลง	-11.4004
หลิน	-11.4004
▁ได้โปรด	-11.4005
คือแบบ	-11.4006
สยอง	-11.4007
ธปท	-11.4007
ตัวเครื่อง	-11.4007
คนทํางาน	-11.4008
อุปถัมภ์	-11.4009
ที่สุดแล้ว	-11.4011
หว	-11.4011
ินทร	-11.4014
2543	-11.4015
โยก	-11.4015
ปป	-11.4018
สาวน้อย	-11.4018
blackpink	-11.4022
ชั้นสูง	-11.4022
รู้จักกับ	-11.4023
248	-11.4025
อะไหล่	-11.4027
ว่ามันจะ	-11.4035
ซะงั้น	-11.4037
เราจะไม่	-11.4037
งอน	-11.4037
กับพ่อ	-11.4037
สมัครใจ	-11.4038
พยานฯ	-11.4038
ต่อไปได้	-11.4038
ลึกๆ	-11.4038
ไม่ได้ไป	-11.4039
มากๆค่ะ	-11.4042
ยึดถือ	-11.4042
เหตุให้	-11.4042
ธิปไตย	-11.4043
นึ่ง	-11.4044
she	-11.4044
สเปค	-11.4046
ป๊า	-11.4046
พัสดุ	-11.4048
ที่ตั้งของ	-11.405
มวยจังหวะ	-11.405
มากับ	-11.4052
อีกคนหนึ่ง	-11.4053
ราตรี	-11.4055
มติชน	-11.4056
วรายงาน	-11.4058
ของผู้ตาย	-11.4058
หด	-11.4061
ผลสํารวจ	-11.4061
oc	-11.4064
ตัวเองได้	-11.4065
ยกร่าง	-11.4066
การฟื้นฟู	-11.4068
อียู	-11.4069
ผู้ก่อตั้ง	-11.407
เพราะกลัว	-11.4071
เต็มไปหมด	-11.4071
ita	-11.4072
เพาะปลูก	-11.4072
สิ่งเดียว	-11.4073
ข้อเสนอของ	-11.4074
เคียงข้าง	-11.4074
ลงทุนใน	-11.4074
ในพม่า	-11.4074
รูปแบบการ	-11.4075
มีเจ้าหน้า	-11.4077
สําเร็จใน	-11.4078
เลี่ยน	-11.4078
เหวี่ยง	-11.4079
แล้วเราก็	-11.408
มอญ	-11.4081
ยิว	-11.4081
ยังมีความ	-11.4082
ผู้ซึ่ง	-11.4082
สี่เหลี่ยม	-11.4083
มิก	-11.4083
จบเกม	-11.4084
หนังสือที่	-11.4084
มิต	-11.4085
สุขภาพดี	-11.4087
chang	-11.4089
ตกรอบ	-11.4089
หาตัว	-11.409
มีนัก	-11.409
ลุกขึ้นมา	-11.4091
ลงสู่	-11.4092
แตกแยก	-11.4093
เฉลิมฉลอง	-11.4093
ของรายการ	-11.4096
และองค์กร	-11.4097
คนโต	-11.4097
ถ้าอยาก	-11.4098
เป็นคู่	-11.4105
ไฮโซ	-11.4106
ถอยหลัง	-11.4106
มาดาม	-11.4108
โจว	-11.4109
box	-11.411
ผู้ชายที่	-11.411
smart	-11.411
men	-11.411
เองได้	-11.4111
สุสาน	-11.4111
จะหยุด	-11.4113
▁ฉันแค่	-11.4113
การกิน	-11.4114
เพราะคุณ	-11.4115
กลอง	-11.4115
เหมือนที่	-11.4118
ในทันที	-11.4118
มูรินโญ	-11.4119
แห่งรัฐ	-11.4122
หยก	-11.4123
ค่าเฉลี่ย	-11.4123
ยกฟ้อง	-11.4124
หดตัว	-11.4125
▁หยุด	-11.4126
kr	-11.4128
section	-11.4128
▁ทีม	-11.4128
ลูกทุ่ง	-11.413
ณิ	-11.4131
ไม่รู้ตัว	-11.4132
องคมนตรี	-11.4135
▁ทุกวันนี้	-11.4136
สรร	-11.4136
เป็นสาเหตุ	-11.4136
กําหนดการ	-11.4136
ของคนที่	-11.4137
บิว	-11.4137
อยู	-11.4137
ครองราชย์	-11.4137
ไลค์	-11.4138
มง	-11.4139
ก็อย่า	-11.414
ภั	-11.4146
ตรวจสอบข	-11.4146
ฟังเสียง	-11.4146
หอการค้า	-11.4146
แรงดัน	-11.4148
กระทิง	-11.415
ที่จะเป็น	-11.4151
หลายชนิด	-11.4152
โบร	-11.4154
▁ฉันไม่รู้	-11.4155
กฎระเบียบ	-11.4158
กรุ	-11.4158
แย้ง	-11.4159
กันระหว่าง	-11.4162
หากเรา	-11.4164
โบก	-11.4164
กังวลว่า	-11.4164
ฉันเอง	-11.4166
ศรีราชา	-11.4168
ยังใช้	-11.4168
อยู่ในมือ	-11.4171
คมชัด	-11.4176
▁ไม่อยาก	-11.4176
17.00	-11.4177
ใช้มัน	-11.4177
ของแท้	-11.4177
โอกาสที่จะ	-11.4178
ชะตากรรม	-11.4179
ปฏิทิน	-11.4179
พระจันทร์	-11.4179
พรบ	-11.4179
มาหลายปี	-11.4181
กวาดล้าง	-11.4184
จําแนก	-11.4184
ได้มาก	-11.4185
หาได้	-11.4186
ประเทศนี้	-11.4189
ว่าคุณจะ	-11.419
ชอน	-11.419
ฝ่ายหญิง	-11.419
ราบรื่น	-11.4192
คาเฟ่	-11.4193
สุพรรณ	-11.4194
เป็นปัจจัย	-11.4195
ทําแผน	-11.4199
ก็จริง	-11.42
ห้องสมุด	-11.4203
อบจ	-11.4205
ถูกตัด	-11.421
ยุคนี้	-11.4213
ess	-11.4213
เต็มตัว	-11.4213
ควบคุมการ	-11.4214
ระหว่างปี	-11.4217
ในบรรดา	-11.4217
มีมาตรการ	-11.4219
ตอนนี้เรา	-11.422
ซะหน่อย	-11.4222
ว่	-11.4223
ฟาก	-11.4224
ได้ดีกว่า	-11.4224
เป๋	-11.4224
ก้อย	-11.4225
คลีน	-11.4225
ปิดท้าย	-11.4229
แก้แค้น	-11.4229
เพราะต้อง	-11.423
กันดี	-11.4231
เกย์	-11.4232
ดีมั้ย	-11.4232
จะเลิก	-11.4233
ลูบ	-11.4235
ซักที	-11.4236
เก้	-11.4238
har	-11.4238
แต่นี่	-11.424
งื้อ	-11.4241
วัชร	-11.4247
อ้ะ	-11.4248
กลอน	-11.425
ไม่สบายใจ	-11.4252
มาใส่	-11.4252
เค้าไม่	-11.4253
กีตาร์	-11.4253
ในมือ	-11.4253
มันก็เป็น	-11.4255
ในรัฐบาล	-11.4256
system	-11.4257
การสอบ	-11.4259
เมื่อเขา	-11.4261
ชุ่มชื้น	-11.4263
ได้ยินว่า	-11.4264
อัพเดต	-11.4265
ล่อง	-11.4267
ช่วยเรา	-11.4267
กินได้	-11.4271
โปร่ง	-11.4273
ก็คิดว่า	-11.4274
ฟิสิกส์	-11.4275
▁ใช่ค่ะ	-11.4276
น้ําผึ้ง	-11.4279
เริ่มขึ้น	-11.4279
เชิด	-11.4279
งงๆ	-11.428
แป้น	-11.428
บีบีซี	-11.4285
นง	-11.4285
ฝาย	-11.4287
เธอกําลัง	-11.4288
ไถ่	-11.429
กระท่อม	-11.4292
ทิศตะวันตก	-11.4294
หลายร้อย	-11.4295
โดยปกติ	-11.4295
ไหนก็	-11.4296
ล้อเล่น	-11.4297
มันยาก	-11.4298
อย่างใด	-11.43
แคส	-11.43
ตอนกลางคืน	-11.4304
▁รับแจ้ง	-11.4306
จับตามอง	-11.4308
หวัด	-11.4309
ออง	-11.431
ตอกย้ํา	-11.4311
ต้องเร่ง	-11.4312
ชํานาญ	-11.4314
ก็อยู่	-11.4316
เสี่ยงต่อ	-11.4318
กูก็	-11.4319
มุกดาหาร	-11.432
มีขนาดใหญ่	-11.4321
มาทําอะไร	-11.4321
ประกันตน	-11.4325
ลูกเรือ	-11.4326
3:	-11.4326
ตรวจยึด	-11.4326
สัต	-11.4328
game	-11.4331
เงินทอง	-11.4331
ตกอยู่	-11.4333
กับตํารวจ	-11.4334
โง่ๆ	-11.4335
กระนั้น	-11.4336
การกุศล	-11.434
ฎีกา	-11.4342
ขอแค่	-11.4344
ปท	-11.4344
จะทํางาน	-11.4345
อดีตประธาน	-11.4347
มัล	-11.4347
เร็วเข้า	-11.4347
วางระเบิด	-11.4347
นั่นก็คือ	-11.4347
เป็นพยาน	-11.4351
หนึ่งเดียว	-11.4352
nic	-11.4353
จํานวนเงิน	-11.4353
ใดก็ตาม	-11.4355
เนี่ยนะ	-11.4355
หนุ	-11.4355
เปิดเผยถึง	-11.4355
▁ผมอยาก	-11.4356
แลกกับ	-11.4358
เหตุเกิด	-11.4359
ได้แจ้ง	-11.4359
ในที่นี้	-11.4362
ใกล้ชิดกับ	-11.4364
ซึ่งการ	-11.4366
หย	-11.4366
เส้นเลือด	-11.4367
โกดัง	-11.4368
ของหนู	-11.4369
รําลึก	-11.4369
ผมบอก	-11.4371
ตอนต้น	-11.4375
▁ชีวิต	-11.4375
พิธีกรรม	-11.4376
ของแก	-11.4377
หม่อมฉัน	-11.4379
วิตกกังวล	-11.4379
ให้อํานาจ	-11.4379
แตงโม	-11.438
หนึ่งคือ	-11.4381
act	-11.4382
ป้ะ	-11.4382
▁"-	-11.4382
ติ๊ก	-11.4382
เลือกใช้	-11.4382
โจ้	-11.4382
หน้าใหม่	-11.4383
สิงห	-11.4385
คุณไป	-11.4386
วิไล	-11.4388
tar	-11.4388
จะทําการ	-11.439
พูดถูก	-11.4391
พัดลม	-11.4391
ที่ได้มา	-11.4391
ไม่พลาด	-11.4392
ส่วนแบ่ง	-11.4393
ยัก	-11.4393
แรงจูงใจ	-11.4393
ประมาณการ	-11.4396
สองตัว	-11.4397
ซัส	-11.4401
ผลเสีย	-11.4403
ความน่ารัก	-11.4403
ผู้นั้น	-11.4405
cp	-11.4409
ชนะคะแนน	-11.441
บังทัน	-11.4411
รองรับการ	-11.4411
เนียร์	-11.4412
การปรับตัว	-11.4412
ผลของ	-11.4412
▁ฉันมี	-11.4413
แยกกัน	-11.4413
ปาย	-11.4414
มาถาม	-11.4415
เห่า	-11.4416
ทางใต้	-11.4416
ทุกที่	-11.4417
ก่อนการ	-11.442
ปิง	-11.442
โดนัลด์	-11.442
คืบหน้า	-11.4422
กัก	-11.4422
ตูม	-11.4426
ในภาพยนตร์	-11.4426
ris	-11.4427
เนชั่น	-11.4428
ในบัญชี	-11.4428
กระแสไฟฟ้า	-11.4429
มีฝนตกหนัก	-11.4429
เจ้าค่ะ	-11.4429
คุณภาพของ	-11.443
ในภาพ	-11.4433
ผมรู้	-11.4434
เรียกกันว่	-11.4437
บัญชา	-11.4438
ใช่หรือไม่	-11.4442
จะชอบ	-11.4446
▁ทําไมถึง	-11.4447
😋	-11.4447
เดินเรือ	-11.4448
ราชประสงค์	-11.4449
กลางๆ	-11.4449
ios	-11.4451
▁i	-11.4453
-20	-11.4454
ไหมค่ะ	-11.4454
โรเบิร์ต	-11.4455
ิบ	-11.4456
ทางธุรกิจ	-11.4456
▁ฉันว่า	-11.4458
ทวน	-11.4459
คิดค้น	-11.446
คนขาย	-11.4461
สสส	-11.4465
จะมีคน	-11.4465
▁แล้วทําไม	-11.4466
ด้อม	-11.4466
__	-11.4466
จะมาถึง	-11.4468
เอ๋ย	-11.4468
ลิ่ง	-11.4469
บั้ม	-11.4471
ในร่างกาย	-11.4471
เป็นจํานวน	-11.4472
ในลีก	-11.4472
น้ําใน	-11.4474
ทัช	-11.4475
การอบรม	-11.4479
คนใด	-11.448
พอแล้ว	-11.4483
pen	-11.4484
พอได้	-11.4486
ใครรู้	-11.4487
จิบ	-11.4488
เรารู้สึก	-11.4489
ลูกทีม	-11.4491
อีกนิด	-11.4492
ช่วยได้	-11.4492
มีชื่อว่า	-11.4492
พื้นดิน	-11.4495
ล่าม	-11.4495
มานานกว่า	-11.4495
ิม	-11.4495
ด้วยกฎหมาย	-11.4498
็บ	-11.4498
▁โห	-11.4498
สุขุม	-11.4501
ให้ปากคํา	-11.4502
เทพเจ้า	-11.4502
เจ้าคณะ	-11.4502
ลิขิต	-11.4504
2004	-11.4507
ใช้สําหรับ	-11.4507
มั่นใจใน	-11.4508
แพงกว่า	-11.4513
เปิดรับ	-11.4514
มีงานทํา	-11.4514
นี้ยัง	-11.4517
ฟังก์ชั่น	-11.4519
ในแม่น้ํา	-11.4519
เพื่อพัฒนา	-11.452
▁ฟัง	-11.4523
สองวัน	-11.4523
เล่นน้ํา	-11.4524
จะไปไหน	-11.4526
เลยค่า	-11.4527
นี้เลย	-11.4527
คุณไม่	-11.453
ในย่าน	-11.4531
บอกเล่า	-11.4531
สถานประกอบ	-11.4532
็ค	-11.4532
ธ์	-11.4533
นิติกรรม	-11.4534
ต้องได้รับ	-11.4534
จ่ะ	-11.4534
คาม	-11.4536
กะลา	-11.4539
การจัดสรร	-11.454
พ่อกับแม่	-11.4541
องุ่น	-11.4542
place	-11.4542
รายได้น้อย	-11.4542
หรือครับ	-11.4542
กฎเกณฑ์	-11.4542
คิดว่าเป็น	-11.4543
เพื่ออะไร	-11.4544
1.8	-11.4545
พิชัย	-11.4546
พุด	-11.4547
ขอแนะนํา	-11.4548
แล้วเรา	-11.4549
ส่วนอีก	-11.455
มันก็ไม่	-11.455
เสมอไป	-11.4551
มากแค่ไหน	-11.4552
ไม่ให้เกิด	-11.4552
ของเครื่อง	-11.4552
ชาวมุสลิม	-11.4552
ขอบคุณมากๆ	-11.4553
ทําความ	-11.4553
การอภิปราย	-11.4554
อนันต์	-11.4555
ผมเชื่อว่า	-11.4555
จะขาย	-11.4556
รากฐาน	-11.4556
คําให้การ	-11.4558
ช่วยบอก	-11.456
หนาม	-11.456
ธีระ	-11.4561
เป็นบุตร	-11.4563
ท่านได้	-11.4563
อะไรอีก	-11.4564
กับรัฐบาล	-11.4565
นําศพ	-11.4566
อีกเยอะ	-11.4567
ไอที	-11.4568
เรล	-11.4572
ทรงพระกรุณ	-11.4573
ขี่รถ	-11.4573
เรื่องใหญ่	-11.4573
ป๊อป	-11.4574
๊ว	-11.4575
ได้ประสาน	-11.4576
ใช่ไหมคะ	-11.4579
คลิปวิดีโอ	-11.4579
วล	-11.4582
บุค	-11.4583
พระบรมราช	-11.4584
เพราะเธอ	-11.4584
แถวๆ	-11.4585
อิทธิพลของ	-11.4586
ในยาม	-11.4588
ชาติไทย	-11.4589
แกรม	-11.459
8,000	-11.4591
amazon	-11.4591
ได้ประมาณ	-11.4593
เสนอว่า	-11.4596
ได้แชมป์	-11.4598
5.5	-11.4598
แคม	-11.4599
ราชกุมารี	-11.4599
มีน้ําหนัก	-11.46
จะเกิดอะไร	-11.46
บางชนิด	-11.46
eu	-11.4605
วิสัย	-11.4606
รอบอก	-11.4609
กลางถนน	-11.4609
ครบทุก	-11.461
เดือนแล้ว	-11.461
รอบด้าน	-11.461
เต็นท์	-11.4611
สานต่อ	-11.4615
บูล	-11.4616
จอมเกล้าเ	-11.4616
▁นายกฯ	-11.4617
แปลงไป	-11.4618
คู่สมรส	-11.4618
ตัวแทนของ	-11.462
มีเสน่ห์	-11.4621
ออล	-11.4622
คร้าบ	-11.4624
น่ารักมากๆ	-11.4625
กล่าวอ้าง	-11.4626
แบดมินตัน	-11.4627
-18	-11.4629
ลักพาตัว	-11.4632
บอกมา	-11.4632
เสาไฟฟ้า	-11.4634
ความตกลง	-11.4635
การมี	-11.4636
หยอด	-11.4638
▁เว็บไซต์	-11.4638
ล่ะก็	-11.464
ความน่า	-11.4641
กลับคืนมา	-11.4644
กล้าม	-11.4644
โม้	-11.4646
แต่ละครั้ง	-11.4648
ข้น	-11.4648
ออกประกาศ	-11.465
คุณคิดว่า	-11.4651
สกี	-11.4651
อัศวิน	-11.4653
วิสามัญ	-11.4654
ได้นาน	-11.4655
ได้ร่วมกัน	-11.4657
วัลย์	-11.4657
ทุกเดือน	-11.4658
ที่กระทรวง	-11.4658
ถม	-11.4659
แนะนําว่า	-11.466
ชุบ	-11.4661
โดนด่า	-11.4662
ตรรกะ	-11.4662
ปกรณ์	-11.4665
ตามมาตรฐาน	-11.4667
▁อ้อ	-11.4667
เสียงของ	-11.4667
ก็มีการ	-11.4669
ดูคลิป	-11.467
บัส	-11.467
2:	-11.4672
เกะ	-11.4673
ใครก็ได้	-11.4674
▁และยัง	-11.4675
พันทิป	-11.4675
เคยถูก	-11.4676
ของแต่ละคน	-11.4678
มีความเป็น	-11.4679
ผลัด	-11.4679
อนาคตของ	-11.468
ไม่ได้นะ	-11.4681
ผูกขาด	-11.4681
เทรด	-11.4684
เด็กสาว	-11.4684
สิ่งที่ดี	-11.4684
นามว่า	-11.4687
ตั้งค่า	-11.4688
▁ข้าจะ	-11.4688
ิฟ	-11.4689
แจ๊ค	-11.4689
นําเงิน	-11.4693
เท่าใด	-11.4693
ดินสอ	-11.4694
เป็นงาน	-11.4695
bur	-11.4696
เต้า	-11.4696
bs	-11.4697
๋ว	-11.4697
bank	-11.4698
ye	-11.4699
นามสมมติ	-11.47
คูล	-11.4702
วาเลนไทน์	-11.4704
ต้องซื้อ	-11.4704
มีผลบังคับ	-11.4704
ผู้ร้าย	-11.4704
sing	-11.4705
ไม่สําคัญ	-11.4707
หากจะ	-11.4708
เขาอยู่	-11.4709
เรอะ	-11.4709
,4.	-11.4709
เราอาจจะ	-11.471
nt	-11.4711
โหม	-11.4711
เมื่อครั้ง	-11.4712
ตรวจจับ	-11.4714
pha	-11.4714
ยูเครน	-11.4715
ฮือฮา	-11.4715
เขาอาจจะ	-11.4716
ความยินดี	-11.4716
ต้องเสีย	-11.4716
ชุ	-11.4717
ความปรารถน	-11.4718
ตั้งข้อ	-11.4721
จึงถูก	-11.4722
cap	-11.4723
นภา	-11.4725
ชั	-11.4726
▁ด้วยความ	-11.4728
การเผยแพร่	-11.4728
โอบามา	-11.4729
7.5	-11.4731
อลังการ	-11.4732
ธรรมะ	-11.4733
ฉับพลัน	-11.4735
มิลาน	-11.4735
ปลดล็อก	-11.4739
ชักชวน	-11.474
มีรูป	-11.4741
ทุกคนก็	-11.4741
boo	-11.4742
ใช้น้ํา	-11.4743
ต่อสังคม	-11.4744
ครั้งต่อไป	-11.4744
ปัญหาความ	-11.4744
ฐานข้อมูล	-11.4746
วิค	-11.4747
เบาะแส	-11.4748
อินทร	-11.4748
อยู่ครับ	-11.4751
ไม่สวย	-11.4752
อาจจะต้อง	-11.4754
วางตัว	-11.4754
อุตส่าห์	-11.4755
▁รู้สึก	-11.4756
ของทหาร	-11.4756
คุณลักษณะ	-11.4756
ว่างงาน	-11.4756
ลูกชิ้น	-11.4759
ในอําเภอ	-11.4759
แสงแดด	-11.4761
คุยเรื่อง	-11.4761
อ๋อ	-11.4761
ักษ	-11.4761
ขัดกับ	-11.4761
sal	-11.4761
คุณควร	-11.4763
๐๐	-11.4765
นิติเวช	-11.4765
ทําไงดี	-11.4766
บางกลุ่ม	-11.4766
ให้เงิน	-11.4766
นัดนี้	-11.4766
โดร	-11.4767
อีเหี้ย	-11.477
170	-11.4771
ธนบัตร	-11.4772
joy	-11.4772
สกาย	-11.4772
แต่เช้า	-11.4775
พึงพอใจ	-11.4777
คริ	-11.4778
ในกระเป๋า	-11.4778
able	-11.4779
หมั่น	-11.478
ที่โดน	-11.4781
วัตร	-11.4781
รับหน้าที่	-11.4782
นู้น	-11.4783
มองหน้า	-11.4784
ลักทรัพย์	-11.4784
ในสัปดาห์	-11.4786
จัดเป็น	-11.4787
360	-11.4791
▁ว้าว	-11.4792
int	-11.4794
เห้ย	-11.4794
และหาก	-11.4795
ard	-11.4796
เบรค	-11.4797
ตู้เย็น	-11.4799
ว่าจะเป็น	-11.4802
วชิร	-11.4803
ลี้ภัย	-11.4804
มูน	-11.4804
และรัฐบาล	-11.4804
3000	-11.4805
ให้เสร็จ	-11.4805
ปิย	-11.4805
ปลัดกระท	-11.4805
คนทํา	-11.4806
ตื้น	-11.4807
สุรา	-11.4807
ภัยคุกคาม	-11.4807
คล่องตัว	-11.4811
เนื่องด้วย	-11.4813
เดือนนี้	-11.4814
ใครมี	-11.4814
มรดกโลก	-11.4815
ยังไม่ทราบ	-11.4816
ler	-11.4817
ที่มีปัญหา	-11.4818
ต้มยํา	-11.4819
บันทึกไว้	-11.482
▁ที่มา	-11.482
ซาว	-11.4821
ที่ปรากฏ	-11.4822
อาจถูก	-11.4822
ให้เพื่อน	-11.4822
มากจริงๆ	-11.4823
เอ้า	-11.4823
ได้เลยว่า	-11.4824
lt	-11.4825
who	-11.4826
เราจะต้อง	-11.4827
ฝ่ายเดียว	-11.4829
บริหารพรรค	-11.4831
van	-11.4831
มั	-11.4832
ell	-11.4835
aya	-11.4836
นาก	-11.484
หิ	-11.4841
ส้น	-11.4842
ทุกแห่ง	-11.4842
เสียแล้ว	-11.4842
เรื่องเล่า	-11.4843
บุตรสาว	-11.4843
ในวันนั้น	-11.4844
คงไม่มี	-11.4845
จะเล่น	-11.4846
ดูแลความ	-11.4846
เคล็ดลับ	-11.485
เธอไม่ได้	-11.4851
ภูเขาไฟ	-11.4852
ไม่เท่ากัน	-11.4852
ดีจริงๆ	-11.4853
บุคคลอื่น	-11.4855
มีกําหนด	-11.4856
จากข้อมูล	-11.4859
ฝึกงาน	-11.486
ตัวเมีย	-11.486
ธัญญ	-11.4861
กนก	-11.4862
วิธีคิด	-11.4864
20%	-11.4865
ตัวเดียว	-11.4865
ขอเวลา	-11.4865
ที่ขาย	-11.4867
เพราะงั้น	-11.487
นี่ไม่ใช่	-11.487
ตัวแทนจาก	-11.4871
คาง	-11.4873
ฃ	-11.4873
โป้	-11.4874
อาน	-11.4876
เหตุที่	-11.4876
ชนก	-11.4877
เขี้ยว	-11.4878
ริช	-11.4879
บุรุษ	-11.4881
official	-11.4881
ตัวบุคคล	-11.4881
นะว่า	-11.4882
ัติ	-11.4883
ชื้น	-11.4883
ทํางานกับ	-11.4885
วลี	-11.4886
สูงที่สุด	-11.4888
ส่งข้อมูล	-11.489
สร้างปัญหา	-11.4892
แต่งงานกัน	-11.4893
ทู้	-11.4894
ไม่ตอบ	-11.4895
เงินได้	-11.4896
sl	-11.4897
จะเน้น	-11.4897
ไปก็	-11.4898
คอยดู	-11.4898
กี่โมง	-11.4898
ก่อนถึง	-11.4899
โดนจับ	-11.4901
เป็นองค์กร	-11.4902
ชิพ	-11.4902
เมนท์	-11.4902
ภายหลังการ	-11.4903
แพทยศาสตร์	-11.4904
จากบริษัท	-11.4907
เกลี้ยง	-11.4907
ประกาศผล	-11.4908
ดีเลย	-11.4909
ox	-11.4912
เป็นครั้ง	-11.4913
▁ทําไมต้อง	-11.4913
สื่อข่าว	-11.4915
หนุ่มๆ	-11.4916
ทรงตัว	-11.4917
อัญเชิญ	-11.4917
ที่มีคน	-11.4918
คงมี	-11.4922
หม่า	-11.4923
น่ากิน	-11.4923
เน้นย้ํา	-11.4925
ทางบริษัท	-11.4928
ไปใน	-11.4928
รอรับ	-11.4928
คนแบบนี้	-11.4929
▁ขอบคุณมาก	-11.493
เปลือย	-11.493
ลงรูป	-11.4931
ตอนนี้ผม	-11.4931
ในการรักษา	-11.4932
เจาะจง	-11.4935
ความสวยงาม	-11.4935
โดยมิชอบ	-11.4935
ขนส่งทางบก	-11.4936
ภายในบ้าน	-11.494
อยู่ห่าง	-11.494
ของผู้คน	-11.494
ปิโตรเลียม	-11.4941
๒๕๔	-11.4942
ทางความคิด	-11.4942
จะไม่ได้	-11.4942
อยู่ในใจ	-11.4943
บอกผม	-11.4943
mark	-11.4944
key	-11.4944
now	-11.4944
ชี้นํา	-11.4945
จนหมด	-11.4946
จุดเด่น	-11.4946
ผังเมือง	-11.4947
▁รวมถึง	-11.4949
คนต่างด้าว	-11.4949
สินทรัพย์	-11.4951
trans	-11.4952
1.3	-11.4955
แสดงตัว	-11.4955
พบเจอ	-11.4958
จะมีผล	-11.4959
ได้ยื่น	-11.4961
คือใคร	-11.4961
เมเจอร์	-11.4962
อัตลักษณ์	-11.4962
โดยเฉพาะใน	-11.4963
2539	-11.4963
พวกเราจะ	-11.4963
ที่ทุกคน	-11.4965
เปิดร้าน	-11.4965
ตามหมายจับ	-11.4966
ตะลึง	-11.4968
แย่ลง	-11.497
ins	-11.497
ด้วยเหรอ	-11.4971
ร็อค	-11.4971
ในการดูแล	-11.4972
2005	-11.4973
มหาอํานาจ	-11.4975
ไปทําอะไร	-11.4976
ขององค์การ	-11.4978
มันต้องมี	-11.498
pic	-11.4981
▁เขาจะ	-11.4983
ในซอย	-11.4985
รอบที่	-11.4987
ที่ได้จาก	-11.4987
ดังๆ	-11.4988
เราไม่เคย	-11.4991
ไม่แพง	-11.4991
▁แม้แต่	-11.4993
นี้ไป	-11.4994
ภาษาจีน	-11.4996
ต้องคิด	-11.4997
ก็ได้ครับ	-11.4998
ลาบ	-11.4999
มีทางเลือก	-11.5
ต้องถูก	-11.5001
19.00	-11.5001
จะรอ	-11.5001
กะทันหัน	-11.5002
แน่เลย	-11.5004
เวลาผ่านไป	-11.5008
sky	-11.5009
ภูมิปัญญา	-11.501
ราชโองการ	-11.5011
โลน	-11.5011
ยื่นเรื่อง	-11.5013
หลังจากการ	-11.5015
ในโอลิมปิก	-11.5015
ได้เลยครับ	-11.5016
ob	-11.5016
มาพูด	-11.5017
ค่าครองชีพ	-11.5018
รัต	-11.5019
af	-11.5021
พิจารณาว่า	-11.5021
หนึ่งปี	-11.5022
หยวน	-11.5022
เป็นประมุข	-11.5023
สมาคมฯ	-11.5025
ด้วยมือ	-11.5025
ลิ้งค์	-11.5025
รัฐบาลจะ	-11.5027
ไม่คุ้ม	-11.5029
ติดลบ	-11.503
รู้อะไร	-11.5031
แล้วถ้า	-11.5031
ฉลาก	-11.5031
ชุ่ม	-11.5032
มากจน	-11.5034
คร่า	-11.5039
จาร	-11.5039
ทําไมคุณ	-11.5039
ศัก	-11.504
นักดนตรี	-11.5041
▁อุณหภูมิ	-11.5041
เล่นงาน	-11.5041
ได้ฟัง	-11.5041
ได้ข้อสรุป	-11.5042
แห่งปี	-11.5042
แบ่งเขต	-11.5043
หยาบคาย	-11.5044
▁ที่สําคัญ	-11.5045
▁ครู	-11.5045
พิศ	-11.5046
แล้วเอา	-11.5046
คีรี	-11.5048
ในตอนนั้น	-11.5048
นิเวศ	-11.5049
ใครก็ตาม	-11.5052
เป็นภาระ	-11.5053
hot	-11.5053
ไม่ใช่การ	-11.5055
▁อย่างที่	-11.5055
อาร์ต	-11.5056
ไปขอ	-11.5057
ยูเอ็น	-11.5059
เห็นแก่	-11.506
ทําสิ่งที่	-11.5061
aw	-11.5062
แล้วทําไม	-11.5062
แย้ม	-11.5065
ขบ	-11.5065
กลบ	-11.5066
นั่งดู	-11.5066
รองหัวหน้า	-11.5067
รถเข็น	-11.5067
พระโอรส	-11.5068
ในเรือนจํา	-11.5069
gg	-11.507
มาก็	-11.5072
จะจบ	-11.5073
สมรรถนะ	-11.5074
▁ยังมี	-11.5074
เรียบเรียง	-11.5075
รับบริการ	-11.5076
เลยอยาก	-11.5076
element	-11.5078
ในสมอง	-11.5078
talk	-11.5078
อย่างเป็น	-11.5079
ว่าจะไม่	-11.5083
ได้เสนอ	-11.5083
ซีพี	-11.5084
copy	-11.5084
เขาให้	-11.5086
ใช้เวลานาน	-11.5087
ที่ทรง	-11.5087
ยืดเยื้อ	-11.5087
ระหว่างที่	-11.5089
ตายไปแล้ว	-11.5089
ขึ้นสู่	-11.5089
และสิ่ง	-11.509
รูปแบบของ	-11.5091
อินโด	-11.5092
ในละคร	-11.5092
โอ๊ย	-11.5092
แซน	-11.5093
เจ๊ง	-11.5094
คุณปู่	-11.5095
พัฒนาระบบ	-11.5096
หนอ	-11.5097
ในมาตรา	-11.5097
ผู้มีสิทธิ	-11.5098
นอร์เวย์	-11.5098
เรียนต่อ	-11.5099
ซึ่งหาก	-11.5099
สมเหตุสมผล	-11.5101
มียอด	-11.5102
review	-11.5104
look	-11.5106
บอกอะไร	-11.5106
ไซเบอร์	-11.5107
เดินเข้าไป	-11.5108
เลิกงาน	-11.5108
สปสช	-11.5109
ให้สามารถ	-11.5109
คัดกรอง	-11.5109
เกษ	-11.511
ไม่ขอ	-11.5111
น่าเชื่อ	-11.5113
แม่ทัพภาค	-11.5113
dia	-11.5114
เล่าถึง	-11.5115
มอส	-11.5116
งี่เง่า	-11.5117
อีกเหรอ	-11.5118
เพรส	-11.5118
ล่ะคะ	-11.5118
ดิโอ	-11.5121
สิ่งต่างๆ	-11.5121
อ้างถึง	-11.5122
มิ่ง	-11.5123
ทั้งระบบ	-11.5126
ส่งของ	-11.5126
ตั้งนาน	-11.513
ขวัญใจ	-11.513
จูงใจ	-11.5132
ของโรค	-11.5132
รูปที่	-11.5132
lee	-11.5133
ก็คือการ	-11.5134
ขนย้าย	-11.5135
city	-11.5135
หลั่ง	-11.5135
อัศจรรย์	-11.5136
คาย	-11.5136
รวบรวมพยาน	-11.5136
ไอศกรีม	-11.5136
นู๋	-11.5138
กรมสอบสวน	-11.5139
และเพื่อน	-11.514
รีสอร์ต	-11.5141
▁ปรากฏว่า	-11.5141
ยอดนิยม	-11.5142
สถานภาพ	-11.5145
เม้นท์	-11.5145
เมืองนอก	-11.5145
น้ําพริก	-11.5146
ตีกัน	-11.5147
และวิธีการ	-11.5148
การติดตั้ง	-11.5149
ในช่วงปี	-11.515
เด่ว	-11.5151
.2558	-11.5154
pt	-11.5155
สิ่งที่ผม	-11.5155
.2559	-11.5157
เราจะไป	-11.5159
โรล	-11.5159
รับส่ง	-11.516
ling	-11.5161
ที่ไทย	-11.5163
หรือประมาณ	-11.5163
ุง	-11.5164
ฉันเลย	-11.5164
ไนท์	-11.5166
นักกฎหมาย	-11.5167
▁แต่คุณ	-11.5167
สารภาพว่า	-11.5169
มีคําถาม	-11.5171
จากนั้นจึง	-11.5171
ยราชภัฏ	-11.5171
กําลังสอง	-11.5172
เอะ	-11.5172
โธ่	-11.5174
ชนแห่งชาติ	-11.5174
▁แฟน	-11.5174
ไม่ต่างจาก	-11.5177
คําสัญญา	-11.5178
โสภณ	-11.5179
แอต	-11.5184
คนรอบข้าง	-11.5185
มีประวัติ	-11.5186
social	-11.5186
ุ้น	-11.5187
วาทกรรม	-11.5187
โรงหนัง	-11.5189
คราวหน้า	-11.5189
mil	-11.5192
ผมอยู่	-11.5193
ลาส	-11.5193
ต่อประชาชน	-11.5194
แอฟ	-11.5196
อันเนื่องม	-11.5197
ได้กําหนด	-11.5198
ระบาด	-11.52
อายุประมาณ	-11.52
▁ถ้างั้น	-11.5201
ทิม	-11.5205
พรรณนา	-11.5207
ที่ยังคง	-11.5207
เคือง	-11.5207
ความแตกแยก	-11.5208
club	-11.5209
เป็นพ่อ	-11.5211
ทางเหนือ	-11.5211
ร่วมรัฐบาล	-11.5212
ละนะ	-11.5213
กต	-11.5213
โดยเฉลี่ย	-11.5214
ข่าย	-11.5217
ศัลยกรรม	-11.5217
นาร์	-11.5217
ก็ต้องมี	-11.5218
ปีแรก	-11.5218
▁เขาก็	-11.522
มิง	-11.5221
เสียใจกับ	-11.5222
ช้างป่า	-11.5222
โอเวอร์	-11.5222
ลวก	-11.5223
ใช้คํา	-11.5223
ลองไป	-11.5224
ชิล	-11.5224
ในหนัง	-11.5225
เนกประสงค์	-11.5225
สลากกินแบ	-11.5225
และบริษัท	-11.5226
ล้านดอลลาร	-11.5227
ก่อนนะคะ	-11.5227
ลัม	-11.5228
จะคิด	-11.523
มิให้	-11.523
board	-11.5231
วามเร็วสูง	-11.5232
เหมือนเป็น	-11.5233
ที่กู้ภัย	-11.5236
ในรุ่น	-11.524
-25	-11.524
เพี้ยน	-11.5241
ขึ้นใหม่	-11.5244
ชนชาติ	-11.5245
หึ	-11.5246
หนักกว่า	-11.5251
127	-11.5251
ได้พยายาม	-11.5253
store	-11.5253
การติดตาม	-11.5253
นอกบ้าน	-11.5254
นําร่อง	-11.5255
kim	-11.5255
สามีภรรยา	-11.5255
ตัวหนึ่ง	-11.5256
ใจร้าย	-11.5256
pol	-11.5256
เกิดเรื่อง	-11.5256
นิช	-11.5257
sur	-11.5258
ออเดอร์	-11.5259
ราชสํานัก	-11.5259
การตัด	-11.5259
ยาไอซ์	-11.5259
ลงสมัคร	-11.5263
บันทึกภาพ	-11.5264
tch	-11.5265
ผสาน	-11.5266
อยู่นาน	-11.5268
▁หัวหน้า	-11.5268
โมงเช้า	-11.5269
2541	-11.5269
น้ําไหล	-11.527
จะเป็นคน	-11.527
ปอง	-11.5271
สําเร็จรูป	-11.5272
ดุจ	-11.5273
าณาจักรไทย	-11.5274
▁หวังว่า	-11.5275
คือมัน	-11.5277
ไอติม	-11.5278
195	-11.5279
๊ย	-11.5279
ว่ามันเป็น	-11.528
ขุม	-11.528
1990	-11.5281
ใบ้	-11.5282
▁บริษัท	-11.5282
จก	-11.5282
ใส่สบาย	-11.5283
เก๋ง	-11.5283
เนียม	-11.5284
รสนิยม	-11.5285
ที่ตัวเอง	-11.5285
1,500	-11.5287
ประถม	-11.5288
ิช	-11.5289
▁เมื่อไหร่	-11.529
การแต่งงาน	-11.5292
แพรว	-11.5294
ตอบกลับ	-11.5294
ของร่างกาย	-11.5297
รักและ	-11.5298
เพื่อแสดง	-11.5299
นํารถ	-11.5301
รถแท็กซี่	-11.5302
บนแผ่น	-11.5303
ek	-11.5303
▁ทุกอย่าง	-11.5304
บํานาญ	-11.5304
ของตัว	-11.5304
เลยยย	-11.5305
low	-11.5307
ven	-11.5307
นาถ	-11.5308
ต้องอยู่	-11.531
แนวความคิด	-11.531
โควตา	-11.5312
▁เป็นการ	-11.5315
โดนใจ	-11.5316
อันหนึ่ง	-11.5316
ก็อร่อย	-11.5317
มานะ	-11.5317
จํานวนผู้	-11.5318
คอยดูแล	-11.5321
ยาห์	-11.5321
ซัมซุง	-11.5323
ดํารงชีวิต	-11.5323
▁หลายคน	-11.5324
รวมเป็น	-11.5329
ดูไม่	-11.5329
ao	-11.5329
กลมกล่อม	-11.5329
นาซี	-11.5332
แต่เดิม	-11.5334
เรารู้	-11.5334
ผมเป็นคน	-11.5338
งานศพ	-11.5339
press	-11.5345
ไม่หาย	-11.5347
450	-11.5348
เบอ	-11.5348
ัย	-11.5349
ต้นปี	-11.5349
ิติบัญญัติ	-11.5352
ลําไส้	-11.5354
สูงสุดของ	-11.5355
เหย	-11.5356
ปรากฎว่า	-11.5358
เงินคืน	-11.5359
ต้อ	-11.5361
สอย	-11.5364
ด้านความ	-11.5366
เหลือแค่	-11.5366
หลี	-11.5367
ให้ศาล	-11.5367
ยังไม่ถึง	-11.5368
ลล	-11.5368
nam	-11.5368
บอกว่าจะ	-11.5369
ช้อป	-11.5371
ฐิติ	-11.5371
ตาข่าย	-11.5372
ของพนักงาน	-11.5374
ก้ม	-11.5375
คุณลุง	-11.5376
ให้เวลา	-11.5376
ชนชั้นนํา	-11.5377
ในญี่ปุ่น	-11.538
▁เขาบอกว่า	-11.538
ฮึ	-11.538
มลายู	-11.5381
ทุกสาขา	-11.5381
ๆไป	-11.5383
ปรี	-11.5385
ณะ	-11.5386
ที่ผู้	-11.5386
บ้างก็	-11.5386
หนูจะ	-11.5386
เพราะหาก	-11.5387
แบ่งกลุ่ม	-11.5387
ประมุข	-11.5388
บาศก์เมตร	-11.5388
ต้องขอ	-11.5388
ของทั้งสอง	-11.5388
นะเนี่ย	-11.5389
รายได้จาก	-11.5389
ที่อาจจะ	-11.539
siam	-11.539
ที่นํามา	-11.5391
ทหารพราน	-11.5393
ไม่เปลี่ยน	-11.5394
เผ	-11.5394
ปาด	-11.5395
▁ทําไมเธอ	-11.5396
ไม่ทําให้	-11.5396
มีสมาชิก	-11.5396
lip	-11.5397
▁ทีนี้	-11.5397
ประเมินผล	-11.5398
น่าทึ่ง	-11.54
ลองทํา	-11.5404
ให้ถูกต้อง	-11.5405
ซีเรียส	-11.5406
ปีข้างหน้า	-11.5407
เรียนอยู่	-11.5408
ดเจ็บสาหัส	-11.5408
ุด	-11.5409
ทะเลาะ	-11.5409
ดวงดาว	-11.5409
formation	-11.541
era	-11.5411
รองโฆษก	-11.5411
ขี่รถจักร	-11.5411
ในสถานที่	-11.5412
▁ขอบคุณค่ะ	-11.5413
ลูกน้อย	-11.5413
๊าก	-11.5413
ทรงเป็น	-11.5413
ตอแหล	-11.5413
คบหา	-11.5414
เปื่อย	-11.5414
อยู่ค่ะ	-11.5415
อัต	-11.5415
ที่กล่าวมา	-11.5415
มีหนังสือ	-11.5417
มาแทน	-11.5417
ยังไม่เห็น	-11.5418
▁ใช่แล้ว	-11.542
อาร์ม	-11.542
มีฝนตก	-11.542
หว่า	-11.5421
▁อย่าไป	-11.5423
กับชีวิต	-11.5423
แย่ๆ	-11.5426
เปิ้ล	-11.5427
คอร์ด	-11.5427
ต้านทาน	-11.5429
den	-11.5429
เราเป็นคน	-11.5429
น่าเกลียด	-11.5431
ที่รุนแรง	-11.5431
คืนมา	-11.5432
หรือความ	-11.5433
12.00	-11.5433
ล้มลง	-11.5435
รังแก	-11.5437
ไม่รัก	-11.5437
แย่งชิง	-11.5438
คอมเมนต์	-11.544
ู่	-11.5442
ที่รับ	-11.5445
รอยต่อ	-11.5447
ที่บริษัท	-11.5447
ประกอบไป	-11.5447
ลําไย	-11.5447
ว่าตัวเอง	-11.5448
▁ฉันกําลัง	-11.5448
ได้มากขึ้น	-11.5449
การปฏิเสธ	-11.5451
มาเรียน	-11.5451
ระยะหนึ่ง	-11.5452
มีความหวัง	-11.5452
ตร์	-11.5453
คอนกรีต	-11.5453
พูดภาษา	-11.5453
ผู้ที่มี	-11.5453
ล่มสลาย	-11.5456
18.	-11.5457
นับถือศาสน	-11.5457
asia	-11.5457
ึ้ง	-11.5458
ซักเครื่อง	-11.5458
ปลูกข้าว	-11.5459
ณเดชน์	-11.5461
ron	-11.5462
▁อยากไป	-11.5462
็อ	-11.5462
กันหน่อย	-11.5463
หารือกัน	-11.5463
🙏🏻	-11.5463
ff	-11.5464
สังข์	-11.5465
อยู่ๆ	-11.5465
ขสมก	-11.5469
.2559)	-11.5471
ศก	-11.5471
ทั้งโลก	-11.5474
ผับ	-11.5475
น่ารักดี	-11.5475
▁ส่วนใหญ่	-11.5478
ขจร	-11.5478
เสี่ยว	-11.548
รู้แล้ว	-11.5481
แล้วนะครับ	-11.5481
ดูครับ	-11.5481
ฉุด	-11.5483
เทพรัตน	-11.5484
และทรง	-11.5484
ของอ	-11.5484
สลัก	-11.5486
่วย	-11.5486
พลทหาร	-11.5486
ชํา	-11.5486
มาตาม	-11.549
ที่พยายาม	-11.5491
แอบอ้าง	-11.5491
กรณีของ	-11.5492
ซึ่งต้อง	-11.5492
ขัดข้อง	-11.5493
บ่าว	-11.5493
ระลึกถึง	-11.5493
น้ะ	-11.5495
ต้องรู้	-11.5495
ทองแดง	-11.5496
ควน	-11.5496
ถิ่นฐาน	-11.5496
นิมิต	-11.5496
แม่ทัพ	-11.5496
ตรุษจีน	-11.5497
กับชาวบ้าน	-11.5498
นี้ว่า	-11.5498
ยโสธร	-11.5501
ใช้มาตรการ	-11.5503
ix	-11.5504
จัดไป	-11.5505
บํารุงผิว	-11.5505
ภัณฑ์	-11.5506
ติดตามตัว	-11.5506
4/	-11.5506
ให้พนักงาน	-11.5509
กันแดด	-11.5509
ขาเข้า	-11.5509
น้ําประปา	-11.5509
ผิวหน้า	-11.5511
บําเพ็ญ	-11.5511
ครีบ	-11.5514
ถ้าได้	-11.5514
ดินแดง	-11.5514
มีชัย	-11.5516
และพื้นที่	-11.5518
งานศิลปะ	-11.5518
ari	-11.5519
กองเชียร์	-11.552
▁กิน	-11.5521
ศูนย์วิจัย	-11.5521
คีย์	-11.5522
จะดีขึ้น	-11.5522
เรื่องง่าย	-11.5523
lin	-11.5524
.2562)	-11.5525
ปรับลด	-11.5526
ไต่	-11.5527
ซน	-11.5531
ปลูกฝัง	-11.5531
ขึ	-11.5531
สถานที่ที่	-11.5531
สวมเสื้อ	-11.5535
ดรีม	-11.5535
ทีมเยือน	-11.5535
อีกสอง	-11.5536
คิดไว้	-11.5536
ด้วยระบบ	-11.5536
ที่โดดเด่น	-11.5537
ทรงพระ	-11.5537
เคีย	-11.554
สวี	-11.5541
ไม่จํากัด	-11.5542
ium	-11.5542
ก็ได้รับ	-11.5543
ได้รับคํา	-11.5547
ิ่งมีชีวิต	-11.5547
ในสหรัฐฯ	-11.555
กู้ชีพ	-11.5551
เราทุกคน	-11.5552
หนักๆ	-11.5552
เขาเลย	-11.5552
ตรงจุด	-11.5552
ลาดตระเวน	-11.5554
การก่อ	-11.5555
ร่วมสมัย	-11.5556
ลูกหนี้	-11.5557
ผู้ดี	-11.5557
ต้องผ่าน	-11.5558
ศาสน	-11.5559
มีมติให้	-11.5559
มนุษยธรรม	-11.5559
สมัยนั้น	-11.556
เวสต์	-11.5561
โลกโซเชียล	-11.5562
เด็กอายุ	-11.5564
และกําลัง	-11.5566
ตามรอย	-11.5567
คนเดิม	-11.5567
อินสตาแกรม	-11.5568
tal	-11.5568
นอนไม่หลับ	-11.557
้วน	-11.5577
กลิ้ง	-11.5578
2475	-11.5578
ติส	-11.5579
market	-11.558
ได้ทัน	-11.5582
โค่น	-11.5583
▁ถ้ามี	-11.5584
ban	-11.5584
มาด	-11.5585
รักคุณ	-11.5586
ไม่เคยคิด	-11.5587
ในระบอบป	-11.5591
lic	-11.5592
.2562	-11.5592
น่ารําคาญ	-11.5592
เฌอ	-11.5594
เข้าทาง	-11.5595
ภาชนะ	-11.5596
▁ถาม	-11.5597
เอไอเอส	-11.5597
นิต	-11.5598
เฟซ	-11.5598
char	-11.5599
ติว	-11.5599
ตาบอด	-11.5599
การปกป้อง	-11.56
เรื่องเงิน	-11.56
อยู่ตลอด	-11.56
▁ด้วยการ	-11.5601
หวีด	-11.5603
ต้องห่วง	-11.5604
rc	-11.5605
ag	-11.5605
บ้างนะ	-11.5606
เลม	-11.5606
อากาศหนาว	-11.5606
ของเพื่อน	-11.5606
โรงสี	-11.5607
ปลูกพืช	-11.5608
ที่มีอายุ	-11.561
เชื้อโรค	-11.561
เอารถ	-11.5612
การขับขี่	-11.5613
university	-11.5613
นายหน้า	-11.5614
ทะลัก	-11.5616
จอดอยู่	-11.5619
ร่วมใจ	-11.5621
ยีนส์	-11.5626
จะยอม	-11.5628
โรด	-11.5629
ไทยรัฐทีวี	-11.5629
คนธรรมดา	-11.5629
นี่สิ	-11.563
ของประชากร	-11.5633
ชาวพุทธ	-11.5634
จะพบ	-11.5635
ไงครับ	-11.5638
กรรมสิทธิ์	-11.5639
ชาวเน็ต	-11.5639
นซ์	-11.5639
ได้มาซึ่ง	-11.564
แห่งราชอ	-11.5643
พินิจ	-11.5644
ชีวิตที่	-11.5645
เฉิน	-11.5645
ดาราศาสตร์	-11.5648
ของตาราง	-11.5649
อาหารเช้า	-11.565
จากเหตุ	-11.5652
ปวดท้อง	-11.5652
แต่อย่า	-11.5652
ลักษณะนี้	-11.5653
เป็นราย	-11.5653
ran	-11.5655
จากใจ	-11.5658
bg	-11.5659
ไม่ชัดเจน	-11.5661
คาดเดา	-11.5662
เจือ	-11.5662
สมัครเล่น	-11.5663
แสงอาทิตย์	-11.5663
ตัวประกัน	-11.5663
การค้นพบ	-11.5664
ฟาง	-11.5664
ต้องเลือก	-11.5665
ฮ่า	-11.5666
mobile	-11.5667
ป่านนี้	-11.567
ย้อนไป	-11.5671
ปัญหานี้	-11.5672
▁เห็นด้วย	-11.5672
come	-11.5672
บูธ	-11.5673
ไม่เหมาะ	-11.5673
ได้ง่ายๆ	-11.5673
สนุกดี	-11.5673
เดินสาย	-11.5679
แรงๆ	-11.5679
เลือดออก	-11.568
โชคร้าย	-11.568
จาม	-11.5681
ในโลกนี้	-11.5682
ข้อผิดพลาด	-11.5682
กเกอร์	-11.5682
~~	-11.5683
ต้องทําให้	-11.5685
cal	-11.5685
ไม่ลืม	-11.5685
แสนล้านบาท	-11.5689
ทุกประการ	-11.569
น้ําเสีย	-11.5691
๒๕	-11.5691
อย่างสูง	-11.5692
ผู้รับเหมา	-11.5693
ได้ดีมาก	-11.5695
row	-11.5695
แวมไพร์	-11.5698
ใครอยาก	-11.5698
เปลี่ยนใจ	-11.5699
เยโฮ	-11.5699
งะ	-11.57
ฝึกอบรม	-11.5701
หนีบ	-11.5702
ลูกค้าที่	-11.5702
การเสนอ	-11.5702
ดีคะ	-11.5702
และอื่นๆ	-11.5704
สิ่งที่เขา	-11.5705
เมิน	-11.5707
ipad	-11.5708
รับเรื่อง	-11.5708
ภาคธุรกิจ	-11.5708
ual	-11.5708
1.4	-11.5709
เดินเท้า	-11.5711
วูบ	-11.5711
สมมุติ	-11.5711
เกตุ	-11.5712
พื้นที่ป่า	-11.5713
ตรัสว่า	-11.5713
ศึกษาต่อ	-11.5714
ไม่กิน	-11.5714
ความจริงใจ	-11.5715
บัค	-11.5716
ที่เปิด	-11.5717
young	-11.5721
ปักกิ่ง	-11.5722
ไหนๆ	-11.5722
▁เขาเป็น	-11.5722
รัฐบาลได้	-11.5722
ระดับหนึ่ง	-11.5722
รือ	-11.5725
างเกงยีนส์	-11.5726
เริ่ด	-11.5726
รักษาโรค	-11.5726
ไร้สาย	-11.5728
กินกัน	-11.5729
บึงกาฬ	-11.5729
นิรันดร์	-11.5729
ปศุสัตว์	-11.5731
แซะ	-11.5731
แห่งใหม่	-11.5732
ที่จอด	-11.5734
ษฐ	-11.5734
๑๙	-11.5736
ดัม	-11.5738
จะยิ่ง	-11.5738
หั	-11.5739
val	-11.5739
อุทัย	-11.5741
เล่าให้	-11.5742
ให้นํา	-11.5742
เข้าห้อง	-11.5743
เอาจริงๆ	-11.5743
สนุกกับ	-11.5745
คล้อง	-11.5747
สาเหตุการ	-11.5749
อะค่ะ	-11.5749
ไม่รุ้	-11.575
คุณชาย	-11.5752
qui	-11.5753
ความเมตตา	-11.5753
ยิ่งทําให้	-11.5753
คยอง	-11.5755
ร่วมงานกับ	-11.5759
นิธิ	-11.576
เสียค่า	-11.576
ทหารบก	-11.576
ส่งเสียง	-11.5764
ก็พบว่า	-11.5764
ย้อม	-11.5764
นําหน้า	-11.5764
ฮอลล์	-11.5764
ลอต	-11.5765
ต่อมาได้	-11.5766
เเรก	-11.5768
เท่าที่ควร	-11.5768
กท	-11.5768
ธนาคารแห่ง	-11.5769
ชมคลิป	-11.5769
เขตแดน	-11.577
ถ้าทํา	-11.5771
ต้องปรับ	-11.5772
นิรภัย	-11.5775
จะนําไป	-11.5775
2.4	-11.5778
หลายสิบ	-11.5778
ในหลายๆ	-11.5778
▁อยากจะ	-11.5778
โลตัส	-11.5782
ใส่ร้าย	-11.5782
มันถูก	-11.5784
เชษฐ	-11.5785
ตามแบบ	-11.5786
rel	-11.5788
house	-11.5788
ค่ารักษา	-11.5791
par	-11.5792
กระตุก	-11.5792
พูน	-11.5794
แง่มุม	-11.5796
ติดอันดับ	-11.5796
บินไป	-11.5797
cher	-11.5797
ที่สาธารณะ	-11.5798
หมดสติ	-11.5798
หลายจุด	-11.5798
หือ	-11.58
นั้นมา	-11.58
ไม่เยอะ	-11.5801
ผ้าห่ม	-11.5802
คนชอบ	-11.5804
ประดิษฐาน	-11.5805
cent	-11.5805
ในแง่ของ	-11.581
พรมแดน	-11.581
จากจีน	-11.5811
กฎกระทรวง	-11.5812
ทําอย่าง	-11.5812
พวกเขาได้	-11.5812
เล่นละคร	-11.5813
ตรวจดู	-11.5813
ญ่า	-11.5815
แอปพลิเคชั	-11.5816
เป็นโอกาส	-11.5818
ปาร์	-11.5818
ของกรม	-11.5819
เฉพาะตัว	-11.5819
จะตก	-11.5819
ยิน	-11.5821
เช่นเดิม	-11.5822
และเริ่ม	-11.5822
การต้อนรับ	-11.5823
ระจายเสียง	-11.5824
จลาจล	-11.5826
▁ตกลง	-11.5828
ory	-11.5828
▁ศาล	-11.5829
▁จับ	-11.5829
ชู้	-11.5831
หม	-11.5833
สปริง	-11.5833
มีความยาว	-11.5834
กรุงลอนดอน	-11.5835
และชาว	-11.5836
ขัดแย้งกับ	-11.5837
เวิร์ค	-11.5838
หมายความ	-11.5838
คลาน	-11.584
สํารวจความ	-11.584
การจัดซื้อ	-11.5841
ying	-11.5842
โบล	-11.5844
แล้วไป	-11.5846
ไม่ได้ว่า	-11.5847
state	-11.5847
อนุภาค	-11.5848
/5	-11.5848
ld	-11.5849
อาชญากร	-11.5852
sim	-11.5853
ไอ้สัส	-11.5854
/4	-11.5855
how	-11.5855
ประการใด	-11.5858
จึงให้	-11.5859
ก็กลายเป็น	-11.5859
ตกลงมา	-11.5859
ky	-11.5859
ช็อค	-11.5863
ใจกลาง	-11.5865
พอเรา	-11.5865
สามสิบ	-11.5867
down	-11.5867
ชนชั้นกลาง	-11.5867
ตนเป็น	-11.5867
เย่	-11.5868
จากพรรค	-11.5872
บอท	-11.5872
สิริกิติ์	-11.5873
เดส	-11.5874
บุกไป	-11.5874
ครั้งหน้า	-11.5874
ยังคงอยู่	-11.5875
แล้วมา	-11.5879
ผุ	-11.5879
▁แต่ก็	-11.5881
เอาใจช่วย	-11.5882
อะไรครับ	-11.5882
galaxy	-11.5882
▁รู้	-11.5882
เกอ	-11.5884
อยู่แถว	-11.5884
เอสซีจี	-11.5885
ต้องเผชิญ	-11.5887
เป็นไร	-11.5887
ระบบราชการ	-11.5887
กลับไปที่	-11.5887
ดูแลสุขภาพ	-11.5887
นานมานี้	-11.589
ได้พิจารณา	-11.589
นักเลง	-11.5891
มุน	-11.5892
พปชร	-11.5893
ᅲᅲ	-11.5893
2002	-11.5894
ิโอ	-11.5896
เป็นแนวทาง	-11.5898
มีบาดแผล	-11.59
สามารถปรับ	-11.5902
ส่งเรื่อง	-11.5903
ตัดผม	-11.5904
แรงกระแทก	-11.5905
โยธา	-11.5907
การเคลื่อน	-11.5911
ล่ํา	-11.5911
เพราะไม่	-11.5912
แรงม้า	-11.5912
style	-11.5912
ภายในงาน	-11.5913
ุดมสมบูรณ์	-11.5915
เด็	-11.5915
(19	-11.5916
ที่ดูแล	-11.5916
วาว	-11.5917
นํามาซึ่ง	-11.5917
ออกมาให้	-11.5918
จารุ	-11.5919
รัวๆ	-11.592
มีการเ	-11.592
body	-11.592
ประมาณว่า	-11.592
หมายถึงการ	-11.5921
วุ่น	-11.5921
ไปลง	-11.5922
ก็ได้ค่ะ	-11.5924
ได้เข้าไป	-11.5924
การไต่สวน	-11.5925
กิล	-11.5925
นับว่าเป็น	-11.5926
โดยส่วนตัว	-11.5926
ปั่นจักรยา	-11.5927
เมท	-11.5927
อุทยานฯ	-11.5928
จิม	-11.5928
family	-11.5928
-_-	-11.5929
ิทยาศาสตร์	-11.593
gs	-11.5931
เสริฟ	-11.5931
ร่วมพิธี	-11.5932
ญญา	-11.5932
บาก	-11.5933
ไม่ตาย	-11.5933
มาสเตอร์	-11.5937
พาส	-11.5938
นุ่มนวล	-11.5939
ได้เกิด	-11.594
ทําด้วย	-11.594
เสียเปรียบ	-11.5941
ผัง	-11.5941
หลีก	-11.5941
know	-11.5942
เล่นเกมส์	-11.5943
ลูกชายของ	-11.5943
กําลังทหาร	-11.5943
แอฟริกาใต้	-11.5944
เนอ	-11.5947
ที่ส่ง	-11.5949
จึงสามารถ	-11.595
เรื่องแรก	-11.595
มีข่าวว่า	-11.595
เช่นไร	-11.5952
ลิสต์	-11.5953
เสนอต่อ	-11.5954
มะขาม	-11.5955
คูปอง	-11.5956
เบิล	-11.5956
เปิดสนาม	-11.5961
เกรียน	-11.5962
ชะลอตัว	-11.5963
ส่วนตัวของ	-11.5963
อือ	-11.5964
มาเรีย	-11.5964
ซึ่งคาดว่า	-11.5965
ถือได้ว่า	-11.5966
แล้วจึง	-11.5967
เรียกเก็บ	-11.5967
การถูก	-11.5968
auto	-11.5969
ไกล่เกลี่ย	-11.5969
ไว้อาลัย	-11.5969
ุ้ม	-11.5971
กลั่นแกล้ง	-11.5972
มีสภาพ	-11.5974
กับงาน	-11.5975
มีกําลัง	-11.5975
วาดภาพ	-11.5975
ตั้งไว้	-11.5977
ศาสตร์ของ	-11.5977
รวมๆ	-11.5977
ปฏิญาณ	-11.5978
บริบูรณ์	-11.5978
ทุกรูปแบบ	-11.5979
มิวสิค	-11.5981
สง่า	-11.5983
ทําความดี	-11.5986
ถุงพลาสติก	-11.5986
ได้เตรียม	-11.5987
สหาย	-11.5987
may	-11.5989
กว่าปี	-11.5989
ควรเป็น	-11.599
บางตัว	-11.5991
ประถมศึกษา	-11.5992
แปป	-11.5993
การคํานวณ	-11.5994
คุยด้วย	-11.5994
จึงจําเป็น	-11.5994
แพร่กระจาย	-11.5994
เป็นรถ	-11.5994
การปลูก	-11.5995
รับปาก	-11.5995
วิทยากร	-11.6
วิตก	-11.6
ทือกสุบรรณ	-11.6001
งานแต่ง	-11.6001
เอาตัว	-11.6001
สัปดาห์ที่	-11.6002
ที่จะนํา	-11.6003
มิค	-11.6004
สําคัญต่อ	-11.6004
เจอคน	-11.6007
2.1	-11.6008
รามคําแหง	-11.6008
จะใช้เวลา	-11.6008
ผ่อง	-11.601
แขนสั้น	-11.601
lot	-11.6011
คนเดียวที่	-11.6011
เหนี่ยว	-11.6011
ง่ายมาก	-11.6011
0.1	-11.6014
สาเหตุของ	-11.6015
หลาก	-11.6017
จูเนียร์	-11.6017
เปลี่ยนจาก	-11.6018
ชํารุด	-11.6019
ไม่เก่ง	-11.6021
เกล็ด	-11.6022
เบิร์ด	-11.6022
ใครก็	-11.6022
ชี้ขาด	-11.6023
ในอเมริกา	-11.6024
รางวัลที่	-11.6024
20.00	-11.6025
๋น	-11.6028
โดดเดี่ยว	-11.6028
รัฐฉาน	-11.6029
จากทาง	-11.603
ยาสูบ	-11.6032
หาอะไร	-11.6034
จังหวัดนคร	-11.6036
เหมือนเรา	-11.6037
ไปกัน	-11.6038
จอร์แดน	-11.6038
ทางหนึ่ง	-11.6038
ชนิดที่	-11.6038
ปล้ําตี	-11.6038
บล็อค	-11.6038
สลบ	-11.6039
ยึดหลัก	-11.604
ปันผล	-11.604
ข้อบกพร่อง	-11.6041
ส่วนกรณี	-11.6042
ถูกใช้	-11.6042
ตั้งข้อหา	-11.6042
เกร็ง	-11.6042
ยิงประตู	-11.6044
ให้ครบ	-11.6044
ตัดเย็บ	-11.6046
ประชานิยม	-11.6046
แอ็	-11.6046
มึงจะ	-11.6047
กระทง	-11.6047
ในแนว	-11.6049
2.2	-11.6051
ฝี	-11.6051
คณิต	-11.6052
ชิต	-11.6053
ฝัก	-11.6054
▁ประชาไท	-11.6056
เส้า	-11.6056
ทําอะไรได้	-11.6056
ศาลชั้นต้น	-11.6057
ไม่เกิด	-11.606
ในแถบ	-11.6061
194	-11.6062
โพสต์ภาพ	-11.6064
ial	-11.6064
ในพระ	-11.6065
ซักถาม	-11.6066
มนัส	-11.6066
การตาย	-11.6067
มีช่อง	-11.6067
และอีก	-11.6068
บนเตียง	-11.6068
จู่โจม	-11.6069
ในน้ํา	-11.6069
สึนามิ	-11.6069
มากน้อย	-11.6069
และเอกชน	-11.607
สนั่น	-11.607
ลองใช้	-11.6071
บรรเลง	-11.6072
ขึ้นเมื่อ	-11.6072
คลุก	-11.6072
และตํารวจ	-11.6073
ั้ย	-11.6073
ไหนบ้าง	-11.6073
เกี่ยวพัน	-11.6074
ตัวเองเป็น	-11.6076
ลูกไม้	-11.6077
จะเดิน	-11.6078
มากเลยนะ	-11.6079
สมคิด	-11.608
ระบุไว้	-11.608
เซ็นเซอร์	-11.6083
คุณไม่ได้	-11.6089
198	-11.6089
ถั	-11.6089
ทับซ้อน	-11.609
อาซา	-11.6091
อซ	-11.6091
วาห์	-11.6094
โชว์ฟอร์ม	-11.6095
เกรงกลัว	-11.6096
▁ป้า	-11.6097
ผลิตไฟฟ้า	-11.6098
การไฟฟ้า	-11.6098
ลัส	-11.6098
เจ้าพ่อ	-11.6099
ในช่วงเช้า	-11.61
phone	-11.6101
มาม่า	-11.6101
ววว	-11.6101
7,000	-11.6102
just	-11.6105
เซ่น	-11.6106
มิชอบ	-11.6106
เป็นปีที่	-11.6106
อื้อ	-11.6107
เลยคับ	-11.6107
aa	-11.6107
รองปลัด	-11.6108
ะฮ์	-11.6108
เข้าที่	-11.6109
ว่าควร	-11.6109
ธานี	-11.6109
4:	-11.6109
tha	-11.6111
คําเตือน	-11.6112
เป็นทีม	-11.6112
ะตือรือร้น	-11.6113
เธฒเธ	-11.6113
เห็นได้จาก	-11.6114
หนูก็	-11.6115
ปกติแล้ว	-11.6115
มีกลิ่น	-11.6115
เราเอง	-11.6115
รู้แล้วว่า	-11.6116
วุ	-11.6117
ทางรถไฟ	-11.6118
อยู่กัน	-11.6118
ริ้ว	-11.6119
ราน	-11.6119
เสรีนิยม	-11.6119
เสด็จพระ	-11.6121
เรารู้ว่า	-11.6123
ค้ํา	-11.6126
หรืออาจ	-11.6127
ช่วงหลัง	-11.6127
dream	-11.6128
แม่สาย	-11.6129
จ้าน	-11.613
จริงไหม	-11.613
ไหนก็ได้	-11.613
รัว	-11.6131
แต่ขอ	-11.6132
โหล	-11.6133
ดูละคร	-11.6133
เสมอกัน	-11.6135
ฉันรัก	-11.6135
เพื่อสังคม	-11.6137
หนังสือถึง	-11.6138
ประคอง	-11.6138
เพื่อรับ	-11.6139
หวานๆ	-11.6139
palitchoke	-11.614
เวฟ	-11.6141
จากนี้ไป	-11.6141
▁ตามที่	-11.6142
ขยายเวลา	-11.6143
ต่อไปอีก	-11.6144
เหี้ยไร	-11.6144
ไซน์	-11.6145
สุม	-11.6146
เอ้	-11.6147
เกน	-11.6147
กสม	-11.6148
ขอบคุณทุก	-11.6148
แค่นี้ก็	-11.615
▁น่า	-11.6151
รักษาประตู	-11.6151
ตั้งอยู่บน	-11.6151
ธิราช	-11.6152
สวนสาธารณะ	-11.6153
ในหัวข้อ	-11.6154
ทั้งการ	-11.6155
คาถา	-11.6156
ที่เก็บ	-11.6156
ในภาคใต้	-11.6157
คนที่ไม่	-11.6159
ค่าเงิน	-11.616
ชาด	-11.616
ออโต้	-11.6161
ภูมิอากาศ	-11.6161
▁ขอบคุณที่	-11.6162
เตีย	-11.6163
ปรับระดับ	-11.6164
มีแนวคิด	-11.6165
ยเชียงใหม่	-11.6165
นครนายก	-11.6168
สถ	-11.6169
ซบ	-11.617
คนชั่ว	-11.6171
hun	-11.6171
ตอนกลาง	-11.6175
ring	-11.6175
รอส	-11.6177
ที่ว่าง	-11.6178
page	-11.6179
สูญพันธุ์	-11.618
เราสองคน	-11.6181
ประสานกับ	-11.6181
คุณป้า	-11.6181
ภายในปี	-11.6182
ยังงัย	-11.6182
ในอังกฤษ	-11.6183
สวัสดีค่ะ	-11.6185
▁หนึ่งใน	-11.6187
บริเวณถนน	-11.6187
web	-11.6187
สาหร่าย	-11.6188
อดีตนายกฯ	-11.6189
2536	-11.619
จะปิด	-11.619
ในภาพรวม	-11.619
อะตอม	-11.6191
friend	-11.6191
สัตหีบ	-11.6194
พิสูจน์ว่า	-11.6195
ภรณ์	-11.6196
อารมณ์ดี	-11.6197
บาเยิร์น	-11.6197
มากสุด	-11.6198
สังคมและ	-11.6199
ล็อต	-11.6201
แฟนเพจ	-11.6201
ดีกว่าครับ	-11.6202
list	-11.6202
ฉันจะไม่	-11.6203
ไปที่นั่น	-11.6205
ในไม่ช้า	-11.6205
▁ร้านนี้	-11.6205
พฤกษ์	-11.6207
ยังไม่ทัน	-11.6207
ไข้หวัด	-11.6208
ทิพ	-11.6209
ฟันธง	-11.6209
ue	-11.6209
media	-11.621
ช่าย	-11.621
ะะ	-11.6211
เน้อ	-11.6211
เปิดกว้าง	-11.6214
ในสายตา	-11.6216
บรรทัดฐาน	-11.6216
เหอ	-11.6217
สธ	-11.6218
ก็เจอ	-11.6222
จะยังคง	-11.6222
ได้หลาย	-11.6224
ฝ่ายรัฐบาล	-11.6225
ib	-11.6226
คนหนึ่งที่	-11.6227
รดน้ํา	-11.6228
ออกแบบให้	-11.6231
125	-11.6233
long	-11.6234
ใบขับขี่	-11.6235
ley	-11.6236
เมืองนี้	-11.6236
,9	-11.6236
แคล	-11.6239
ใช้หนี้	-11.624
▁เกิดอะไร	-11.624
19.	-11.6241
หลิว	-11.6242
ได้เช่นกัน	-11.6248
เป็นแนว	-11.6249
ในสงคราม	-11.625
ปลาหมึก	-11.6252
ลิ้ม	-11.6252
เสมอว่า	-11.6255
นําทีม	-11.6255
ขณะนี้มี	-11.6258
ไม่เสีย	-11.6259
▁อ่า	-11.6259
ทําสงคราม	-11.626
ช่วยฉัน	-11.6261
บอกเขา	-11.6262
บีม	-11.6264
ลองหา	-11.6264
สุภาษิต	-11.6265
โฉ	-11.6266
ls	-11.6267
[...]
